{
  "version": "1.0",
  "truncation": null,
  "padding": null,
  "added_tokens": [
    {
      "id": 0,
      "content": "<|endoftext|>",
      "single_word": false,
      "lstrip": false,
      "rstrip": false,
      "normalized": false,
      "special": true
    },
    {
      "id": 1,
      "content": "<|im_start|>",
      "single_word": false,
      "lstrip": false,
      "rstrip": false,
      "normalized": false,
      "special": true
    },
    {
      "id": 2,
      "content": "<|im_end|>",
      "single_word": false,
      "lstrip": false,
      "rstrip": false,
      "normalized": false,
      "special": true
    },
    {
      "id": 3,
      "content": "<tool_call>",
      "single_word": false,
      "lstrip": false,
      "rstrip": false,
      "normalized": false,
      "special": true
    },
    {
      "id": 4,
      "content": "</tool_call>",
      "single_word": false,
      "lstrip": false,
      "rstrip": false,
      "normalized": false,
      "special": true
    },
    {
      "id": 5,
      "content": "<tool_response>",
      "single_word": false,
      "lstrip": false,
      "rstrip": false,
      "normalized": false,
      "special": true
    },
    {
      "id": 6,
      "content": "</tool_response>",
      "single_word": false,
      "lstrip": false,
      "rstrip": false,
      "normalized": false,
      "special": true
    },
    {
      "id": 7,
      "content": "<think>",
      "single_word": false,
      "lstrip": false,
      "rstrip": false,
      "normalized": false,
      "special": true
    },
    {
      "id": 8,
      "content": "</think>",
      "single_word": false,
      "lstrip": false,
      "rstrip": false,
      "normalized": false,
      "special": true
    },
    {
      "id": 9,
      "content": "<|buffer1|>",
      "single_word": false,
      "lstrip": false,
      "rstrip": false,
      "normalized": false,
      "special": true
    },
    {
      "id": 10,
      "content": "<|buffer2|>",
      "single_word": false,
      "lstrip": false,
      "rstrip": false,
      "normalized": false,
      "special": true
    },
    {
      "id": 11,
      "content": "<|buffer3|>",
      "single_word": false,
      "lstrip": false,
      "rstrip": false,
      "normalized": false,
      "special": true
    },
    {
      "id": 12,
      "content": "<|buffer4|>",
      "single_word": false,
      "lstrip": false,
      "rstrip": false,
      "normalized": false,
      "special": true
    },
    {
      "id": 13,
      "content": "<|buffer5|>",
      "single_word": false,
      "lstrip": false,
      "rstrip": false,
      "normalized": false,
      "special": true
    },
    {
      "id": 14,
      "content": "<|buffer6|>",
      "single_word": false,
      "lstrip": false,
      "rstrip": false,
      "normalized": false,
      "special": true
    },
    {
      "id": 15,
      "content": "<|buffer7|>",
      "single_word": false,
      "lstrip": false,
      "rstrip": false,
      "normalized": false,
      "special": true
    },
    {
      "id": 12000,
      "content": "<|vision_start|>",
      "single_word": false,
      "lstrip": false,
      "rstrip": false,
      "normalized": true,
      "special": false
    },
    {
      "id": 12001,
      "content": "<|vision_end|>",
      "single_word": false,
      "lstrip": false,
      "rstrip": false,
      "normalized": true,
      "special": false
    },
    {
      "id": 12002,
      "content": "<|vision_pad|>",
      "single_word": false,
      "lstrip": false,
      "rstrip": false,
      "normalized": true,
      "special": false
    },
    {
      "id": 12003,
      "content": "<|image_pad|>",
      "single_word": false,
      "lstrip": false,
      "rstrip": false,
      "normalized": true,
      "special": false
    },
    {
      "id": 12004,
      "content": "<|video_pad|>",
      "single_word": false,
      "lstrip": false,
      "rstrip": false,
      "normalized": true,
      "special": false
    },
    {
      "id": 12005,
      "content": "<|audio_start|>",
      "single_word": false,
      "lstrip": false,
      "rstrip": false,
      "normalized": true,
      "special": false
    },
    {
      "id": 12006,
      "content": "<|audio_end|>",
      "single_word": false,
      "lstrip": false,
      "rstrip": false,
      "normalized": true,
      "special": false
    },
    {
      "id": 12007,
      "content": "<|audio_pad|>",
      "single_word": false,
      "lstrip": false,
      "rstrip": false,
      "normalized": true,
      "special": false
    },
    {
      "id": 12008,
      "content": "<|object_ref_start|>",
      "single_word": false,
      "lstrip": false,
      "rstrip": false,
      "normalized": true,
      "special": false
    },
    {
      "id": 12009,
      "content": "<|object_ref_end|>",
      "single_word": false,
      "lstrip": false,
      "rstrip": false,
      "normalized": true,
      "special": false
    },
    {
      "id": 12010,
      "content": "<|box_start|>",
      "single_word": false,
      "lstrip": false,
      "rstrip": false,
      "normalized": true,
      "special": false
    },
    {
      "id": 12011,
      "content": "<|box_end|>",
      "single_word": false,
      "lstrip": false,
      "rstrip": false,
      "normalized": true,
      "special": false
    },
    {
      "id": 12012,
      "content": "<|quad_start|>",
      "single_word": false,
      "lstrip": false,
      "rstrip": false,
      "normalized": true,
      "special": false
    },
    {
      "id": 12013,
      "content": "<|quad_end|>",
      "single_word": false,
      "lstrip": false,
      "rstrip": false,
      "normalized": true,
      "special": false
    }
  ],
  "normalizer": null,
  "pre_tokenizer": {
    "type": "ByteLevel",
    "add_prefix_space": false,
    "trim_offsets": true,
    "use_regex": true
  },
  "post_processor": null,
  "decoder": {
    "type": "ByteLevel",
    "add_prefix_space": true,
    "trim_offsets": true,
    "use_regex": true
  },
  "model": {
    "type": "BPE",
    "dropout": null,
    "unk_token": null,
    "continuing_subword_prefix": null,
    "end_of_word_suffix": null,
    "fuse_unk": false,
    "byte_fallback": false,
    "ignore_merges": false,
    "vocab": {
      "<|endoftext|>": 0,
      "<|im_start|>": 1,
      "<|im_end|>": 2,
      "<tool_call>": 3,
      "</tool_call>": 4,
      "<tool_response>": 5,
      "</tool_response>": 6,
      "<think>": 7,
      "</think>": 8,
      "<|buffer1|>": 9,
      "<|buffer2|>": 10,
      "<|buffer3|>": 11,
      "<|buffer4|>": 12,
      "<|buffer5|>": 13,
      "<|buffer6|>": 14,
      "<|buffer7|>": 15,
      "!": 16,
      "\"": 17,
      "#": 18,
      "$": 19,
      "%": 20,
      "&": 21,
      "'": 22,
      "(": 23,
      ")": 24,
      "*": 25,
      "+": 26,
      ",": 27,
      "-": 28,
      ".": 29,
      "/": 30,
      "0": 31,
      "1": 32,
      "2": 33,
      "3": 34,
      "4": 35,
      "5": 36,
      "6": 37,
      "7": 38,
      "8": 39,
      "9": 40,
      ":": 41,
      ";": 42,
      "<": 43,
      "=": 44,
      ">": 45,
      "?": 46,
      "@": 47,
      "A": 48,
      "B": 49,
      "C": 50,
      "D": 51,
      "E": 52,
      "F": 53,
      "G": 54,
      "H": 55,
      "I": 56,
      "J": 57,
      "K": 58,
      "L": 59,
      "M": 60,
      "N": 61,
      "O": 62,
      "P": 63,
      "Q": 64,
      "R": 65,
      "S": 66,
      "T": 67,
      "U": 68,
      "V": 69,
      "W": 70,
      "X": 71,
      "Y": 72,
      "Z": 73,
      "[": 74,
      "\\": 75,
      "]": 76,
      "^": 77,
      "_": 78,
      "`": 79,
      "a": 80,
      "b": 81,
      "c": 82,
      "d": 83,
      "e": 84,
      "f": 85,
      "g": 86,
      "h": 87,
      "i": 88,
      "j": 89,
      "k": 90,
      "l": 91,
      "m": 92,
      "n": 93,
      "o": 94,
      "p": 95,
      "q": 96,
      "r": 97,
      "s": 98,
      "t": 99,
      "u": 100,
      "v": 101,
      "w": 102,
      "x": 103,
      "y": 104,
      "z": 105,
      "{": 106,
      "|": 107,
      "}": 108,
      "~": 109,
      "¡": 110,
      "¢": 111,
      "£": 112,
      "¤": 113,
      "¥": 114,
      "¦": 115,
      "§": 116,
      "¨": 117,
      "©": 118,
      "ª": 119,
      "«": 120,
      "¬": 121,
      "®": 122,
      "¯": 123,
      "°": 124,
      "±": 125,
      "²": 126,
      "³": 127,
      "´": 128,
      "µ": 129,
      "¶": 130,
      "·": 131,
      "¸": 132,
      "¹": 133,
      "º": 134,
      "»": 135,
      "¼": 136,
      "½": 137,
      "¾": 138,
      "¿": 139,
      "À": 140,
      "Á": 141,
      "Â": 142,
      "Ã": 143,
      "Ä": 144,
      "Å": 145,
      "Æ": 146,
      "Ç": 147,
      "È": 148,
      "É": 149,
      "Ê": 150,
      "Ë": 151,
      "Ì": 152,
      "Í": 153,
      "Î": 154,
      "Ï": 155,
      "Ð": 156,
      "Ñ": 157,
      "Ò": 158,
      "Ó": 159,
      "Ô": 160,
      "Õ": 161,
      "Ö": 162,
      "×": 163,
      "Ø": 164,
      "Ù": 165,
      "Ú": 166,
      "Û": 167,
      "Ü": 168,
      "Ý": 169,
      "Þ": 170,
      "ß": 171,
      "à": 172,
      "á": 173,
      "â": 174,
      "ã": 175,
      "ä": 176,
      "å": 177,
      "æ": 178,
      "ç": 179,
      "è": 180,
      "é": 181,
      "ê": 182,
      "ë": 183,
      "ì": 184,
      "í": 185,
      "î": 186,
      "ï": 187,
      "ð": 188,
      "ñ": 189,
      "ò": 190,
      "ó": 191,
      "ô": 192,
      "õ": 193,
      "ö": 194,
      "÷": 195,
      "ø": 196,
      "ù": 197,
      "ú": 198,
      "û": 199,
      "ü": 200,
      "ý": 201,
      "þ": 202,
      "ÿ": 203,
      "Ā": 204,
      "ā": 205,
      "Ă": 206,
      "ă": 207,
      "Ą": 208,
      "ą": 209,
      "Ć": 210,
      "ć": 211,
      "Ĉ": 212,
      "ĉ": 213,
      "Ċ": 214,
      "ċ": 215,
      "Č": 216,
      "č": 217,
      "Ď": 218,
      "ď": 219,
      "Đ": 220,
      "đ": 221,
      "Ē": 222,
      "ē": 223,
      "Ĕ": 224,
      "ĕ": 225,
      "Ė": 226,
      "ė": 227,
      "Ę": 228,
      "ę": 229,
      "Ě": 230,
      "ě": 231,
      "Ĝ": 232,
      "ĝ": 233,
      "Ğ": 234,
      "ğ": 235,
      "Ġ": 236,
      "ġ": 237,
      "Ģ": 238,
      "ģ": 239,
      "Ĥ": 240,
      "ĥ": 241,
      "Ħ": 242,
      "ħ": 243,
      "Ĩ": 244,
      "ĩ": 245,
      "Ī": 246,
      "ī": 247,
      "Ĭ": 248,
      "ĭ": 249,
      "Į": 250,
      "į": 251,
      "İ": 252,
      "ı": 253,
      "Ĳ": 254,
      "ĳ": 255,
      "Ĵ": 256,
      "ĵ": 257,
      "Ķ": 258,
      "ķ": 259,
      "ĸ": 260,
      "Ĺ": 261,
      "ĺ": 262,
      "Ļ": 263,
      "ļ": 264,
      "Ľ": 265,
      "ľ": 266,
      "Ŀ": 267,
      "ŀ": 268,
      "Ł": 269,
      "ł": 270,
      "Ń": 271,
      "ï¼": 272,
      "ä¸": 273,
      "ï¼Į": 274,
      "ãĢ": 275,
      "çļ": 276,
      "çļĦ": 277,
      "äº": 278,
      "æľ": 279,
      "Ġt": 280,
      "åı": 281,
      "åħ": 282,
      "ãĢĤ": 283,
      "ä»": 284,
      "he": 285,
      "Ġa": 286,
      "in": 287,
      "å¤": 288,
      "åľ": 289,
      "å®": 290,
      "ãĢģ": 291,
      "åĪ": 292,
      "ä½": 293,
      "er": 294,
      "çĶ": 295,
      "åĲ": 296,
      "è¿": 297,
      "on": 298,
      "Ġthe": 299,
      "åĬ": 300,
      "æĺ": 301,
      "æĸ": 302,
      "å¹": 303,
      "åĽ": 304,
      "æĪ": 305,
      "ç»": 306,
      "re": 307,
      "ä¸Ģ": 308,
      "æĹ": 309,
      "ä¹": 310,
      "å°": 311,
      "åį": 312,
      "an": 313,
      "åŃ": 314,
      "âĢ": 315,
      "Ġo": 316,
      "ä¼": 317,
      "ed": 318,
      "åľ¨": 319,
      "è®": 320,
      "Ġs": 321,
      "at": 322,
      "en": 323,
      "or": 324,
      "Ġw": 325,
      "æĺ¯": 326,
      "å·": 327,
      "å¸": 328,
      "is": 329,
      "è¯": 330,
      "åĮ": 331,
      "æĿ": 332,
      "ä¸Ń": 333,
      "æľī": 334,
      "äºº": 335,
      "éĩ": 336,
      "ar": 337,
      "it": 338,
      "al": 339,
      "åº": 340,
      "éĢ": 341,
      "es": 342,
      "åĴ": 343,
      "å¾": 344,
      "è¡": 345,
      "Ġof": 346,
      "nd": 347,
      "åĴĮ": 348,
      "å¹´": 349,
      "Ġf": 350,
      "æī": 351,
      "Ġin": 352,
      "å¼": 353,
      "Ġc": 354,
      "èĢ": 355,
      "åĨ": 356,
      "æķ": 357,
      "å±": 358,
      "Ġb": 359,
      "as": 360,
      "åĩ": 361,
      "å¤§": 362,
      "å¯": 363,
      "çĽ": 364,
      "ä¸į": 365,
      "äºĨ": 366,
      "ä¸º": 367,
      "Ġp": 368,
      "ç§": 369,
      "æ°": 370,
      "ing": 371,
      "ic": 372,
      "çī": 373,
      "Ġand": 374,
      "æĬ": 375,
      "ĥ½": 376,
      "æł": 377,
      "éĻ": 378,
      "åĽ½": 379,
      "ä»¥": 380,
      "æĶ": 381,
      "è§": 382,
      "èµ": 383,
      "çİ": 384,
      "20": 385,
      "è´": 386,
      "æŃ": 387,
      "ro": 388,
      "èĩ": 389,
      "çĶŁ": 390,
      "æĢ": 391,
      "ion": 392,
      "åŃ¦": 393,
      "å¥": 394,
      "æ³": 395,
      "ä¸ļ": 396,
      "å½": 397,
      "Ġto": 398,
      "åİ": 399,
      "çĲ": 400,
      "le": 401,
      "å¿": 402,
      "ä¿": 403,
      "çŃ": 404,
      "Ġm": 405,
      "çº": 406,
      "ä¸Ĭ": 407,
      "è¦": 408,
      "æµ": 409,
      "éĿ": 410,
      "åĳ": 411,
      "çĶ¨": 412,
      "éĹ": 413,
      "æĪĲ": 414,
      "Ġd": 415,
      "âĢľ": 416,
      "æİ": 417,
      "ou": 418,
      "ä¼ļ": 419,
      "19": 420,
      "ä½ľ": 421,
      "åıĳ": 422,
      "è¡Į": 423,
      "å·¥": 424,
      "æ²": 425,
      "èĥ½": 426,
      "è¦ģ": 427,
      "Ġh": 428,
      "ĠS": 429,
      "æĹ¶": 430,
      "ä¸ª": 431,
      "æŀ": 432,
      "âĢĿ": 433,
      "åŁ": 434,
      "åĵ": 435,
      "åľ°": 436,
      "il": 437,
      "éģ": 438,
      "æĭ": 439,
      "åī": 440,
      "äºİ": 441,
      "ĠC": 442,
      "åĪ°": 443,
      "åĩº": 444,
      "åı¯": 445,
      "åħ¬": 446,
      "æ¯": 447,
      "å®¶": 448,
      "ent": 449,
      "ç«": 450,
      "éĺ": 451,
      "è¾": 452,
      "é¢": 453,
      "æ±": 454,
      "é«": 455,
      "è¿Ļ": 456,
      "éĥ": 457,
      "çľ": 458,
      "ä¾": 459,
      "è½": 460,
      "æĹ¥": 461,
      "Ġ,": 462,
      "æĮ": 463,
      "å¯¹": 464,
      "çŃī": 465,
      "st": 466,
      "çĲĨ": 467,
      "am": 468,
      "æ´": 469,
      "æĪĳ": 470,
      "çĤ": 471,
      "åĪĨ": 472,
      "el": 473,
      "æĿ¥": 474,
      "æ¸": 475,
      "é«ĺ": 476,
      "å»": 477,
      "å¤ļ": 478,
      "Ġre": 479,
      "ï¼Ī": 480,
      "ĠA": 481,
      "æĸ¹": 482,
      "ï¼ī": 483,
      "æľĪ": 484,
      "om": 485,
      "èĩª": 486,
      "æĥ": 487,
      "æĦ": 488,
      "éĽ": 489,
      "ä»ĸ": 490,
      "æĸ°": 491,
      "éķ": 492,
      "ol": 493,
      "éĥ¨": 494,
      "æĽ": 495,
      "å¸Ĥ": 496,
      "ĠM": 497,
      "ç¨": 498,
      "æĻ": 499,
      "åĮĸ": 500,
      "èĤ": 501,
      "ç®": 502,
      "äº§": 503,
      "ä»¬": 504,
      "åħ¨": 505,
      "ac": 506,
      "ç½": 507,
      "æ¬": 508,
      "åĬ¨": 509,
      "ä¹ĭ": 510,
      "ad": 511,
      "ä¸ĭ": 512,
      "è¿Ľ": 513,
      "æ³ķ": 514,
      "ä¸İ": 515,
      "åĬĽ": 516,
      "åĲĪ": 517,
      "èģ": 518,
      "åĲĮ": 519,
      "Ġl": 520,
      "ç»ı": 521,
      "åħ¶": 522,
      "æı": 523,
      "åĲİ": 524,
      "ä¸»": 525,
      "Ġ(": 526,
      "The": 527,
      "ï¼ļ": 528,
      "ä¹Ł": 529,
      "é¡": 530,
      "åıĬ": 531,
      "è¿ĩ": 532,
      "ä½ĵ": 533,
      "èĢĮ": 534,
      "ur": 535,
      "Ġwas": 536,
      "çİ°": 537,
      "å¦": 538,
      "ĠB": 539,
      "ç¬": 540,
      "Ġn": 541,
      "et": 542,
      "çĻ": 543,
      "ç¾": 544,
      "å»º": 545,
      "æľ¬": 546,
      "å®ļ": 547,
      "Ġ.": 548,
      "èī": 549,
      "Ġth": 550,
      "ec": 551,
      "éĿ¢": 552,
      "è·": 553,
      "æĢ§": 554,
      "æľº": 555,
      "é£": 556,
      "ç¤": 557,
      "åĬł": 558,
      "åĵģ": 559,
      "iv": 560,
      "åģ": 561,
      "å®ŀ": 562,
      "åĢ": 563,
      "åŃĲ": 564,
      "éļ": 565,
      "éĩį": 566,
      "Ġon": 567,
      "å¼Ģ": 568,
      "èĪ": 569,
      "éĢļ": 570,
      "çķ": 571,
      "çī©": 572,
      "ĠP": 573,
      "å±ķ": 574,
      "ers": 575,
      "çŁ": 576,
      "ig": 577,
      "è¶": 578,
      "å¿ĥ": 579,
      "å¾Ĺ": 580,
      "åīį": 581,
      "id": 582,
      "ation": 583,
      "è®¾": 584,
      "Ġe": 585,
      "èĢħ": 586,
      "æīĢ": 587,
      "åº¦": 588,
      "Ġfor": 589,
      "ly": 590,
      "å§": 591,
      "æ°´": 592,
      "ot": 593,
      "æĸĩ": 594,
      "å°±": 595,
      "ç©": 596,
      "ir": 597,
      "å¢": 598,
      "ay": 599,
      "åĮº": 600,
      "00": 601,
      "æľĢ": 602,
      "éķ¿": 603,
      "im": 604,
      "us": 605,
      "äºĭ": 606,
      "ä½į": 607,
      "æıĲ": 608,
      "åĿ": 609,
      "çĶµ": 610,
      "æį": 611,
      "åĪ¶": 612,
      "ãĢĭ": 613,
      "ãĢĬ": 614,
      "æķĻ": 615,
      "ç´": 616,
      "Ġg": 617,
      "åħ³": 618,
      "ç¬¬": 619,
      "çł": 620,
      "ut": 621,
      "åĲį": 622,
      "ç³": 623,
      "åĽł": 624,
      "éĩı": 625,
      "å¦Ĥ": 626,
      "åĬ¡": 627,
      "è°": 628,
      "åı¸": 629,
      "Ġ19": 630,
      "ä¿Ŀ": 631,
      "ow": 632,
      "ĠR": 633,
      "åĨħ": 634,
      "é¦": 635,
      "Ġas": 636,
      "ch": 637,
      "ter": 638,
      "å°ı": 639,
      "å°Ĩ": 640,
      "æ°ĳ": 641,
      "Ġis": 642,
      "éĥ½": 643,
      "201": 644,
      "ç®¡": 645,
      "å¥½": 646,
      "å¤ĸ": 647,
      "èĬ": 648,
      "åħ¥": 649,
      "å¤©": 650,
      "ç¨ĭ": 651,
      "è¡¨": 652,
      "åľº": 653,
      "çĦ": 654,
      "æŁ": 655,
      "æ¶": 656,
      "ith": 657,
      "åĳĺ": 658,
      "å¹¶": 659,
      "çĽ®": 660,
      "è¢": 661,
      "ç±": 662,
      "æľŁ": 663,
      "èĲ": 664,
      "em": 665,
      "èµĦ": 666,
      "Ġ1": 667,
      "åºĶ": 668,
      "un": 669,
      "çĿ": 670,
      "éĹ´": 671,
      "ĠD": 672,
      "éľ": 673,
      "ist": 674,
      "çĽ¸": 675,
      "ç§ĳ": 676,
      "ä¸ī": 677,
      "æĶ¿": 678,
      "çī¹": 679,
      "ĠL": 680,
      "å®ī": 681,
      "Ġst": 682,
      "éģĵ": 683,
      "çĸ": 684,
      "ï¼Ľ": 685,
      "ç§į": 686,
      "ç³»": 687,
      "æĬĢ": 688,
      "her": 689,
      "æĥħ": 690,
      "ä»£": 691,
      "çĹ": 692,
      "æŃ¤": 693,
      "ĠH": 694,
      "åħ¬åı¸": 695,
      "ä½¿": 696,
      "éħ": 697,
      "ĠG": 698,
      "æĽ´": 699,
      "um": 700,
      "çĶ±": 701,
      "ç¥": 702,
      "ç¾İ": 703,
      "èĭ": 704,
      "and": 705,
      "éĩĳ": 706,
      "ĠT": 707,
      "th": 708,
      "Ġwith": 709,
      "è¢«": 710,
      "ĠF": 711,
      "å£": 712,
      "è¥": 713,
      "æģ": 714,
      "æľ¯": 715,
      "çĥ": 716,
      "ĠN": 717,
      "éĻ¢": 718,
      "åĪ©": 719,
      "æĪĸ": 720,
      "å¹³": 721,
      "æ¯Ķ": 722,
      "æ¬¡": 723,
      "Ġby": 724,
      "200": 725,
      "ct": 726,
      "ce": 727,
      "ul": 728,
      "ä½Ĩ": 729,
      "è®¡": 730,
      "è¥¿": 731,
      "çĪ": 732,
      "å¸¸": 733,
      "ä»»": 734,
      "æĺİ": 735,
      "ag": 736,
      "å½ĵ": 737,
      "åŁº": 738,
      "ĠW": 739,
      "éĤ": 740,
      "ä¿¡": 741,
      "å¼ı": 742,
      "æĦı": 743,
      "èµ·": 744,
      "Ġ\"": 745,
      "ä¸ŃåĽ½": 746,
      "æ´»": 747,
      "ç¡": 748,
      "åįĹ": 749,
      "ä»İ": 750,
      "åı¯ä»¥": 751,
      "æķ°": 752,
      "æµ·": 753,
      "çģ": 754,
      "æ·": 755,
      "çĦ¶": 756,
      "æ¡": 757,
      "ä¸Ģä¸ª": 758,
      "è´¨": 759,
      "ver": 760,
      "Ġal": 761,
      "os": 762,
      "å·¥ä½ľ": 763,
      "Ġbe": 764,
      "ç²": 765,
      "éĩĮ": 766,
      "è·¯": 767,
      "rom": 768,
      "çĤ¹": 769,
      "ç«ĭ": 770,
      "éĵ": 771,
      "æŃ£": 772,
      "Ġat": 773,
      "éĶ": 774,
      "æĪĳä»¬": 775,
      "åĮĹ": 776,
      "åĲĦ": 777,
      "èĥ": 778,
      "èĩ³": 779,
      "ä¸ĵ": 780,
      "ĠI": 781,
      "Ġwh": 782,
      "åķ": 783,
      "æº": 784,
      "èį": 785,
      "è¿ĺ": 786,
      "è¯´": 787,
      "è½¦": 788,
      "è£": 789,
      "ĠE": 790,
      "çĿĢ": 791,
      "ĠJ": 792,
      "ain": 793,
      "äºĮ": 794,
      "çłĶ": 795,
      "äºĽ": 796,
      "åŀ": 797,
      "çľģ": 798,
      "ç¦": 799,
      "æĸ¯": 800,
      "æŀľ": 801,
      "ä¼ģ": 802,
      "Ġan": 803,
      "est": 804,
      "åıĳå±ķ": 805,
      "å±±": 806,
      "è§£": 807,
      "åįģ": 808,
      "æł¡": 809,
      "çĲĥ": 810,
      "é»": 811,
      "é¡¹": 812,
      "ç¼": 813,
      "Ġhe": 814,
      "æį®": 815,
      "æĹł": 816,
      "äº¤": 817,
      "åĭ": 818,
      "å¾Ī": 819,
      "æľį": 820,
      "æĤ": 821,
      "éĢł": 822,
      "Ġcon": 823,
      "op": 824,
      "æĮģ": 825,
      "çĤº": 826,
      "éľĢ": 827,
      "ri": 828,
      "åİŁ": 829,
      "Ġthat": 830,
      "è§Ħ": 831,
      "é£İ": 832,
      "av": 833,
      "ä¸ĸ": 834,
      "è¨": 835,
      "åĲĳ": 836,
      "èİ": 837,
      "æİ¥": 838,
      "èº": 839,
      "åĸ": 840,
      "åıĹ": 841,
      "ç½ĳ": 842,
      "å¤Ħ": 843,
      "éĴ": 844,
      "Ġfrom": 845,
      "å·²": 846,
      "å½±": 847,
      "èī²": 848,
      "åħĥ": 849,
      "ä¼ģä¸ļ": 850,
      "ä»¶": 851,
      "åħ±": 852,
      "åħ·": 853,
      "ç»Ł": 854,
      "åŁİ": 855,
      "æµģ": 856,
      "æ¼": 857,
      "æ²»": 858,
      "åı°": 859,
      "ä¸ľ": 860,
      "ç¤¾": 861,
      "æł¼": 862,
      "é©": 863,
      "éĽĨ": 864,
      "oc": 865,
      "å¼º": 866,
      "æłĩ": 867,
      "ç»Ħ": 868,
      "æ±Ĥ": 869,
      "æ°Ķ": 870,
      "æĦŁ": 871,
      "èº«": 872,
      "æ¨": 873,
      "æīĭ": 874,
      "ap": 875,
      "od": 876,
      "æ»": 877,
      "ç»ĵ": 878,
      "æ®": 879,
      "è¿Ĳ": 880,
      "Ġv": 881,
      "èĻ": 882,
      "åĪĽ": 883,
      "åŀĭ": 884,
      "å¯¼": 885,
      "all": 886,
      "èĤ²": 887,
      "åķĨ": 888,
      "çĹħ": 889,
      "Ġit": 890,
      "é¢ĺ": 891,
      "éª": 892,
      "å²": 893,
      "æĬ¥": 894,
      "'s": 895,
      "Ġr": 896,
      "ant": 897,
      "ab": 898,
      "ç¤º": 899,
      "Ġcom": 900,
      "ber": 901,
      "çº§": 902,
      "èģĶ": 903,
      "art": 904,
      "æ£": 905,
      "èĮ": 906,
      "res": 907,
      "èĦ": 908,
      "æĬĢæľ¯": 909,
      "ill": 910,
      "çŁ¥": 911,
      "ew": 912,
      "æĢ»": 913,
      "Ġpro": 914,
      "åĮ»": 915,
      "ity": 916,
      "ä½ł": 917,
      "å½¢": 918,
      "ä¼ł": 919,
      "å¸Ī": 920,
      "å·±": 921,
      "æĶ¹": 922,
      "up": 923,
      "éĹ¨": 924,
      "çľĭ": 925,
      "è¿Ľè¡Į": 926,
      "åįķ": 927,
      "ä¾Ľ": 928,
      "åĻ": 929,
      "è¾¾": 930,
      "ies": 931,
      "å¢ŀ": 932,
      "æĸĻ": 933,
      "çİ¯": 934,
      "ä¸¤": 935,
      "çº¿": 936,
      "Ġhis": 937,
      "å¤ĩ": 938,
      "ate": 939,
      "ard": 940,
      "åİ»": 941,
      "æĶ¶": 942,
      "ç±»": 943,
      "ç®¡çĲĨ": 944,
      "ort": 945,
      "å¸ĥ": 946,
      "åı£": 947,
      "if": 948,
      "èĩªå·±": 949,
      "å¾·": 950,
      "âĢĵ": 951,
      "ian": 952,
      "çķĮ": 953,
      "éŁ": 954,
      "ud": 955,
      "åħĪ": 956,
      "åıĺ": 957,
      "ak": 958,
      "åĽĽ": 959,
      "æķĪ": 960,
      "å·ŀ": 961,
      "éĺŁ": 962,
      "éĹ®": 963,
      "igh": 964,
      "åĮħ": 965,
      "èĢĥ": 966,
      "æĮĩ": 967,
      "çı": 968,
      "ĠK": 969,
      "æºĲ": 970,
      "åıĸ": 971,
      "10": 972,
      "ç©¶": 973,
      "ä¹¦": 974,
      "èµĽ": 975,
      "ia": 976,
      "ĠU": 977,
      "ĠO": 978,
      "åľĭ": 979,
      "é¢Ĩ": 980,
      "å°ĳ": 981,
      "å§Ķ": 982,
      "Ġpl": 983,
      "åĽ¢": 984,
      "åĻ¨": 985,
      "æ¢": 986,
      "çĻ½": 987,
      "éĢī": 988,
      "æĥ³": 989,
      "ä¸ĩ": 990,
      "ip": 991,
      "çĽ´": 992,
      "åħī": 993,
      "åģļ": 994,
      "ich": 995,
      "ç«Ļ": 996,
      "ore": 997,
      "è°ĥ": 998,
      "ç©º": 999,
      "è¯¥": 1000,
      "æ¯ı": 1001,
      "åĶ": 1002,
      "æĶ¾": 1003,
      "ear": 1004,
      "ub": 1005,
      "Ġde": 1006,
      "è®¤": 1007,
      "æĬķ": 1008,
      "åħĭ": 1009,
      "æľįåĬ¡": 1010,
      "æł·": 1011,
      "å®Į": 1012,
      "åıª": 1013,
      "ĠSt": 1014,
      "In": 1015,
      "å°Ķ": 1016,
      "åł": 1017,
      "è¯ģ": 1018,
      "éĿŀ": 1019,
      "è®©": 1020,
      "æ²¡": 1021,
      "ld": 1022,
      "çłĶç©¶": 1023,
      "å®ĥ": 1024,
      "å±Ģ": 1025,
      "æĸ½": 1026,
      "åĽ½å®¶": 1027,
      "ç²¾": 1028,
      "å¢ĥ": 1029,
      "èĳ": 1030,
      "æĪĺ": 1031,
      "è¿ĳ": 1032,
      "èĬĤ": 1033,
      "ated": 1034,
      "ess": 1035,
      "Ġor": 1036,
      "åĽŀ": 1037,
      "ç¥ŀ": 1038,
      "æĸ¼": 1039,
      "éĺ²": 1040,
      "çħ": 1041,
      "èĲ¥": 1042,
      "ov": 1043,
      "è±": 1044,
      "æķ´": 1045,
      "åĬŀ": 1046,
      "qu": 1047,
      "æĶ¯": 1048,
      "åĩĨ": 1049,
      "å¡": 1050,
      "çĬ": 1051,
      "æĿ¡": 1052,
      "å£«": 1053,
      "åįİ": 1054,
      "ä¼ĺ": 1055,
      "æ·±": 1056,
      "ong": 1057,
      "å¹¿": 1058,
      "åıĤ": 1059,
      "æŀĦ": 1060,
      "ä»Ĭ": 1061,
      "å¸¦": 1062,
      "é¦ĸ": 1063,
      "ä½¿çĶ¨": 1064,
      "åĪ«": 1065,
      "è®°": 1066,
      "éĤ£": 1067,
      "ug": 1068,
      "çĥŃ": 1069,
      "æīĵ": 1070,
      "éĻħ": 1071,
      "æ¹": 1072,
      "äº§åĵģ": 1073,
      "èı": 1074,
      "æģ¯": 1075,
      "é£Ł": 1076,
      "éĸ": 1077,
      "æ¸ħ": 1078,
      "åĬ©": 1079,
      "åĨĽ": 1080,
      "Â·": 1081,
      "Ġch": 1082,
      "ä»·": 1083,
      "ive": 1084,
      "ç¡®": 1085,
      "è§Ĥ": 1086,
      "æŃ¥": 1087,
      "è¾ĥ": 1088,
      "åºľ": 1089,
      "ary": 1090,
      "nt": 1091,
      "æ³¨": 1092,
      "Ġare": 1093,
      "æ¸¸": 1094,
      "ere": 1095,
      "å®¢": 1096,
      "éĻĲ": 1097,
      "èĢģ": 1098,
      "å¥³": 1099,
      "çİĭ": 1100,
      "åĬŁ": 1101,
      "Ġse": 1102,
      "end": 1103,
      "æİ¨": 1104,
      "è£ħ": 1105,
      "å§ĭ": 1106,
      "our": 1107,
      "æĪ·": 1108,
      "æīį": 1109,
      "ast": 1110,
      "åĨ³": 1111,
      "è®®": 1112,
      "ge": 1113,
      "ish": 1114,
      "ç§°": 1115,
      "éĢŁ": 1116,
      "mer": 1117,
      "Ġ'": 1118,
      "æķĻèĤ²": 1119,
      "éĢļè¿ĩ": 1120,
      "å®¹": 1121,
      "æľª": 1122,
      "èª": 1123,
      "äºĶ": 1124,
      "ame": 1125,
      "Ġ200": 1126,
      "Ġex": 1127,
      "èģĮ": 1128,
      "æĭī": 1129,
      "æĵ": 1130,
      "éľĢè¦ģ": 1131,
      "æł¹": 1132,
      "é¥": 1133,
      "se": 1134,
      "èŃ": 1135,
      "æ¼Ķ": 1136,
      "ment": 1137,
      "Ġ2": 1138,
      "ç»Ļ": 1139,
      "æŁ¥": 1140,
      "ell": 1141,
      "âĢĶ": 1142,
      "æµİ": 1143,
      "ect": 1144,
      "ass": 1145,
      "æ¡Ī": 1146,
      "åĪĹ": 1147,
      "çĭ": 1148,
      "æ±Ł": 1149,
      "æĬ¤": 1150,
      "ä½İ": 1151,
      "æ¥": 1152,
      "å¤į": 1153,
      "æ¶Ī": 1154,
      "æĺĵ": 1155,
      "è§Ĩ": 1156,
      "ial": 1157,
      "å¼ķ": 1158,
      "ç´ł": 1159,
      "èİ·": 1160,
      "Ġwere": 1161,
      "æĿĲ": 1162,
      "çİĩ": 1163,
      "ord": 1164,
      "å¾Į": 1165,
      "ç±³": 1166,
      "ĠCh": 1167,
      "èĩ´": 1168,
      "æ²¡æľī": 1169,
      "ack": 1170,
      "æıĲä¾Ľ": 1171,
      "éªĮ": 1172,
      "ä¹Ĳ": 1173,
      "åĨį": 1174,
      "åıį": 1175,
      "ine": 1176,
      "æŀĹ": 1177,
      "åı·": 1178,
      "é¡¹çĽ®": 1179,
      "ç»Ń": 1180,
      "äº¬": 1181,
      "çµ": 1182,
      "çľŁ": 1183,
      "ust": 1184,
      "è¶Ĭ": 1185,
      "å·¥ç¨ĭ": 1186,
      "ä¹Ī": 1187,
      "è¯ķ": 1188,
      "red": 1189,
      "æĹ¶éĹ´": 1190,
      "ä»¥åıĬ": 1191,
      "è»": 1192,
      "æĻĤ": 1193,
      "ä»ĸä»¬": 1194,
      "und": 1195,
      "ç§¯": 1196,
      "ä¸»è¦ģ": 1197,
      "å»ºè®¾": 1198,
      "éĹ®é¢ĺ": 1199,
      "ç¤¾ä¼ļ": 1200,
      "è½¬": 1201,
      "æĴ": 1202,
      "æİ§": 1203,
      "ä¸Ķ": 1204,
      "å¸Ĥåľº": 1205,
      "uc": 1206,
      "èĭ±": 1207,
      "æħ": 1208,
      "èĬ±": 1209,
      "çŁ³": 1210,
      "è®º": 1211,
      "åŁŁ": 1212,
      "ĠV": 1213,
      "æľĥ": 1214,
      "è¶ħ": 1215,
      "é¾": 1216,
      "çº¦": 1217,
      "åĳ¨": 1218,
      "è´¹": 1219,
      "çĶŁäº§": 1220,
      "åįĩ": 1221,
      "åİĨ": 1222,
      "ç»´": 1223,
      "çĸĹ": 1224,
      "åŃĺ": 1225,
      "æ¨¡": 1226,
      "æĿĥ": 1227,
      "åĳ½": 1228,
      "åħļ": 1229,
      "è¶³": 1230,
      "é©¬": 1231,
      "å¿«": 1232,
      "åĵį": 1233,
      "åı²": 1234,
      "Ġsh": 1235,
      "Ġle": 1236,
      "og": 1237,
      "Ġwhich": 1238,
      "Ġtr": 1239,
      "å¤ª": 1240,
      "äºļ": 1241,
      "çīĩ": 1242,
      "12": 1243,
      "ep": 1244,
      "å¤§åŃ¦": 1245,
      "ost": 1246,
      "åĪĴ": 1247,
      "ä¸ĸçķĮ": 1248,
      "çĶŁæ´»": 1249,
      "åħ»": 1250,
      "ä¸ĵä¸ļ": 1251,
      "åĳĬ": 1252,
      "æİĴ": 1253,
      "æļ": 1254,
      "å¤´": 1255,
      "åĦ": 1256,
      "è§ģ": 1257,
      "åıĪ": 1258,
      "ç»ıæµİ": 1259,
      "èħ": 1260,
      "âĢĿï¼Į": 1261,
      "æĿĳ": 1262,
      "ä¾ĭ": 1263,
      "æŀģ": 1264,
      "æ²³": 1265,
      "æ¸©": 1266,
      "ãĢĮ": 1267,
      "éĻ¤": 1268,
      "æĶ¿åºľ": 1269,
      "ä¹ł": 1270,
      "å¨": 1271,
      "æ®µ": 1272,
      "ç¢": 1273,
      "å¥¹": 1274,
      "Ġsp": 1275,
      "åĥ": 1276,
      "æĢģ": 1277,
      "ue": 1278,
      "çĪ±": 1279,
      "åĪĻ": 1280,
      "æĸĩåĮĸ": 1281,
      "éĩĩ": 1282,
      "å®īåħ¨": 1283,
      "åŃĹ": 1284,
      "æĺŁ": 1285,
      "è¯Ĩ": 1286,
      "è´£": 1287,
      "åį³": 1288,
      "éħį": 1289,
      "çª": 1290,
      "éŁ³": 1291,
      "çļĦä¸Ģ": 1292,
      "ä½ķ": 1293,
      "åı¯èĥ½": 1294,
      "ight": 1295,
      "èīº": 1296,
      "åĤ": 1297,
      "åİ¿": 1298,
      "åĨµ": 1299,
      "æĬĬ": 1300,
      "è³": 1301,
      "ãĢį": 1302,
      "ä»½": 1303,
      "æµĭ": 1304,
      "æĪ¿": 1305,
      "åı¤": 1306,
      "ç³»ç»Ł": 1307,
      "ical": 1308,
      "ä¸Ńå¿ĥ": 1309,
      "ä¹ī": 1310,
      "åĢ¼": 1311,
      "åº·": 1312,
      "æĺ¯ä¸Ģ": 1313,
      "Ġy": 1314,
      "æĸŃ": 1315,
      "ï¼īï¼Į": 1316,
      "18": 1317,
      "æ¸¯": 1318,
      "éĩįè¦ģ": 1319,
      "çļĦäºº": 1320,
      "30": 1321,
      "åĲĮæĹ¶": 1322,
      "åģ¥": 1323,
      "ra": 1324,
      "æĻ¯": 1325,
      "è¯Ń": 1326,
      "æĸ¹éĿ¢": 1327,
      "è¯·": 1328,
      "å®¤": 1329,
      "ions": 1330,
      "éĢĤ": 1331,
      "èĮĥ": 1332,
      "Ġcomp": 1333,
      "so": 1334,
      "Ġk": 1335,
      "ork": 1336,
      "å±ŀ": 1337,
      "ä¼Ĺ": 1338,
      "ç¬¬ä¸Ģ": 1339,
      "ç½®": 1340,
      "å¾Ģ": 1341,
      "ie": 1342,
      "åĽŃ": 1343,
      "rit": 1344,
      "å¿ħ": 1345,
      "pp": 1346,
      "çħ§": 1347,
      "ä¿®": 1348,
      "ther": 1349,
      "æĭ¬": 1350,
      "åįı": 1351,
      "æĪĲä¸º": 1352,
      "11": 1353,
      "è®¾è®¡": 1354,
      "ff": 1355,
      "He": 1356,
      "ok": 1357,
      "éł": 1358,
      "æī¿": 1359,
      "æĢĿ": 1360,
      "çİ¯å¢ĥ": 1361,
      "å½±åĵį": 1362,
      "èĪĩ": 1363,
      "åľŁ": 1364,
      "åİĭ": 1365,
      "ä¾¿": 1366,
      "Ġhad": 1367,
      "èĤ¡": 1368,
      "æĳ": 1369,
      "ç¦»": 1370,
      "éĿĴ": 1371,
      "æĺ¾": 1372,
      "æĻº": 1373,
      "æ²¹": 1374,
      "çĬ¶": 1375,
      "äººæ°ĳ": 1376,
      "é¦Ļ": 1377,
      "éļı": 1378,
      "æ£Ģ": 1379,
      "å¼ł": 1380,
      "Ġplay": 1381,
      "é¢Ħ": 1382,
      "åĮħæĭ¬": 1383,
      "èį¯": 1384,
      "åŃ¦çĶŁ": 1385,
      "åħ·æľī": 1386,
      "cl": 1387,
      "å¦Ĥæŀľ": 1388,
      "æ´»åĬ¨": 1389,
      "ä¸ŃçļĦ": 1390,
      "è¯Ħ": 1391,
      "irst": 1392,
      "Ġ201": 1393,
      "ä¿¡æģ¯": 1394,
      "èŀ": 1395,
      "Ġun": 1396,
      "éļ¾": 1397,
      "ure": 1398,
      "çģ«": 1399,
      "ç»Ĩ": 1400,
      "èĲ½": 1401,
      "ĠâĢĵ": 1402,
      "ä¸įåĲĮ": 1403,
      "éĺ³": 1404,
      "age": 1405,
      "å¹²": 1406,
      "ç»ĩ": 1407,
      "è±¡": 1408,
      "å°±æĺ¯": 1409,
      "ire": 1410,
      "è®¸": 1411,
      "ous": 1412,
      "è¦ģæ±Ĥ": 1413,
      "æ»¡": 1414,
      "15": 1415,
      "ans": 1416,
      "ry": 1417,
      "æľĽ": 1418,
      "åĽ½éĻħ": 1419,
      "ç¶": 1420,
      "çĮ": 1421,
      "è¨Ģ": 1422,
      "è§Ĵ": 1423,
      "å·´": 1424,
      "åŃ¸": 1425,
      "éĻį": 1426,
      "åĽłä¸º": 1427,
      "ric": 1428,
      "ign": 1429,
      "åħ¶ä»ĸ": 1430,
      "Ġnot": 1431,
      "ä¾Ŀ": 1432,
      "è¡Įä¸ļ": 1433,
      "ide": 1434,
      "å¤±": 1435,
      "åĨľ": 1436,
      "ĠUn": 1437,
      "åĿĩ": 1438,
      "çĽĳ": 1439,
      "æĽ¾": 1440,
      "äººåĳĺ": 1441,
      "éĥ¨åĪĨ": 1442,
      "Ġalso": 1443,
      "åĬ¿": 1444,
      "ave": 1445,
      "æĤ£": 1446,
      "Ġcl": 1447,
      "èĹ": 1448,
      "fter": 1449,
      "æĻ®": 1450,
      "ç®Ĺ": 1451,
      "),": 1452,
      "åĩł": 1453,
      "éĺ¿": 1454,
      "å±ħ": 1455,
      "è¿ŀ": 1456,
      "è¿Ļä¸ª": 1457,
      "åĢĻ": 1458,
      "åŃ¦æł¡": 1459,
      "åĪĿ": 1460,
      "ond": 1461,
      "èĥ½åĬĽ": 1462,
      "æĲ": 1463,
      "æķħ": 1464,
      "man": 1465,
      "çīĮ": 1466,
      "åĦ¿": 1467,
      "æł¸": 1468,
      "ç¯": 1469,
      "æĥħåĨµ": 1470,
      "ä»ħ": 1471,
      "ä½ı": 1472,
      "è¯Ŀ": 1473,
      "éĵģ": 1474,
      "hed": 1475,
      "å¤Ł": 1476,
      "å±Ĥ": 1477,
      "Ġwhe": 1478,
      "çĻ¾": 1479,
      "åħ¶ä¸Ń": 1480,
      "è©": 1481,
      "åŃ£": 1482,
      "è®¾å¤ĩ": 1483,
      "Ġfirst": 1484,
      "å¿µ": 1485,
      "åĽ¾": 1486,
      "ĠThe": 1487,
      "å¤§çļĦ": 1488,
      "äººçļĦ": 1489,
      "è²": 1490,
      "ä½ľä¸º": 1491,
      "land": 1492,
      "Ġro": 1493,
      "åŁ¹": 1494,
      "å¥½çļĦ": 1495,
      "own": 1496,
      "erv": 1497,
      "Ġhas": 1498,
      "èµ°": 1499,
      "çĽ¸åħ³": 1500,
      "å¯Į": 1501,
      "ount": 1502,
      "Ġ18": 1503,
      "è¡¨ç¤º": 1504,
      "ç½Ĺ": 1505,
      "åŁİå¸Ĥ": 1506,
      "çĵ": 1507,
      "è¿ĻäºĽ": 1508,
      "ts": 1509,
      "æ¿": 1510,
      "Ġar": 1511,
      "âĢĿãĢĤ": 1512,
      "Ġint": 1513,
      "å®ĺ": 1514,
      "50": 1515,
      "ember": 1516,
      "åĽ´": 1517,
      "èŀį": 1518,
      "çº¢": 1519,
      "per": 1520,
      "ä¸¾": 1521,
      "è´Ł": 1522,
      "æĿ¿": 1523,
      "wo": 1524,
      "åıĭ": 1525,
      "ç¿": 1526,
      "ç¦ı": 1527,
      "éĻ©": 1528,
      "Ġcont": 1529,
      "å¯Ĩ": 1530,
      "å·²ç»ı": 1531,
      "ang": 1532,
      "ç¾¤": 1533,
      "ä¸¥": 1534,
      "çĽĬ": 1535,
      "å¾ĭ": 1536,
      "åĪĩ": 1537,
      "éĶĢ": 1538,
      "åĥı": 1539,
      "ome": 1540,
      "åĽłæŃ¤": 1541,
      "çļ®": 1542,
      "åī¯": 1543,
      "åĸĦ": 1544,
      "ç»Ħç»ĩ": 1545,
      "æł¹æį®": 1546,
      "å¥ĸ": 1547,
      "ater": 1548,
      "åħħ": 1549,
      "199": 1550,
      "æĮī": 1551,
      "out": 1552,
      "å¿Ĺ": 1553,
      "åįļ": 1554,
      "ng": 1555,
      "ç»Ī": 1556,
      "è´¨éĩı": 1557,
      "iz": 1558,
      "çŃĳ": 1559,
      "æĬķèµĦ": 1560,
      "æĹı": 1561,
      "èī¯": 1562,
      "æĿİ": 1563,
      "æĹħ": 1564,
      "æī¹": 1565,
      "å°¼": 1566,
      "000": 1567,
      "ĠY": 1568,
      "äº§ä¸ļ": 1569,
      "èĳĹ": 1570,
      "Ġits": 1571,
      "ey": 1572,
      "ice": 1573,
      "ä¸ĢäºĽ": 1574,
      "çĽ®åīį": 1575,
      "å¼Ģå§ĭ": 1576,
      "act": 1577,
      "Ġres": 1578,
      "äºī": 1579,
      "Ġus": 1580,
      "ool": 1581,
      "ach": 1582,
      "æ©": 1583,
      "åĲ«": 1584,
      "è¡Ģ": 1585,
      "æľīéĻĲ": 1586,
      "éĿŀå¸¸": 1587,
      "èĩªå·±çļĦ": 1588,
      "äºĴ": 1589,
      "åį¡": 1590,
      "çŃĸ": 1591,
      "Ġbut": 1592,
      "éħĴ": 1593,
      "åįķä½į": 1594,
      "amp": 1595,
      "are": 1596,
      "çıŃ": 1597,
      "Ġad": 1598,
      "çĩ": 1599,
      "åħį": 1600,
      "åħŃ": 1601,
      "åĲĪä½ľ": 1602,
      "port": 1603,
      "ç·": 1604,
      "çĻ¼": 1605,
      "åįĬ": 1606,
      "èĴ": 1607,
      "åŃ¦ä¹ł": 1608,
      "å¤ĦçĲĨ": 1609,
      "åĩı": 1610,
      "åħ¨åĽ½": 1611,
      "ational": 1612,
      "ime": 1613,
      "Ġwho": 1614,
      "ree": 1615,
      "æķ°æį®": 1616,
      "çºª": 1617,
      "èĪª": 1618,
      "orn": 1619,
      "Ġ199": 1620,
      "ition": 1621,
      "ç§ĳæĬĢ": 1622,
      "åĢĭ": 1623,
      "æĹ©": 1624,
      "ark": 1625,
      "æ¹ĸ": 1626,
      "åŃ¦éĻ¢": 1627,
      "æĸ¹å¼ı": 1628,
      "çĨ": 1629,
      "åįĢ": 1630,
      "Ġher": 1631,
      "æ³¢": 1632,
      "åį«": 1633,
      "Ġ3": 1634,
      "ations": 1635,
      "Ġte": 1636,
      "Ġab": 1637,
      "éķĩ": 1638,
      "é»Ħ": 1639,
      "å¸Į": 1640,
      "æŃ¦": 1641,
      "Ġtheir": 1642,
      "é²": 1643,
      "éĽĨåĽ¢": 1644,
      "å³": 1645,
      "ç¾İåĽ½": 1646,
      "åį°": 1647,
      "uct": 1648,
      "Ġpart": 1649,
      "æ¬¾": 1650,
      "å¯¹äºİ": 1651,
      "ib": 1652,
      "meric": 1653,
      "ï¼Ł": 1654,
      "å»ºçŃĳ": 1655,
      "åıĮ": 1656,
      "åĶ®": 1657,
      "çīĪ": 1658,
      "æŃ¢": 1659,
      "è¿ľ": 1660,
      "Ġj": 1661,
      "æĭ©": 1662,
      "low": 1663,
      "æıĲé«ĺ": 1664,
      "ä¸¦": 1665,
      "ä»¤": 1666,
      "é¾Ļ": 1667,
      "åĪĽæĸ°": 1668,
      "ä¹Łæĺ¯": 1669,
      "åº§": 1670,
      "åı¦": 1671,
      "æĿĲæĸĻ": 1672,
      "åŃ©": 1673,
      "It": 1674,
      "æ½": 1675,
      "åĪ°äºĨ": 1676,
      "Ġone": 1677,
      "åĿļ": 1678,
      "ugh": 1679,
      "åľ°åĮº": 1680,
      "16": 1681,
      "ä»Ģ": 1682,
      "å¾®": 1683,
      "Ġ)": 1684,
      "å£°": 1685,
      "æīĢä»¥": 1686,
      "ound": 1687,
      "æ¤": 1688,
      "Ġapp": 1689,
      "ited": 1690,
      "çĶ»": 1691,
      "pl": 1692,
      "ult": 1693,
      "ence": 1694,
      "ens": 1695,
      "æ´²": 1696,
      "Ġrec": 1697,
      "ace": 1698,
      "çķĻ": 1699,
      "ory": 1700,
      "ä»£è¡¨": 1701,
      "çĸ«": 1702,
      "è´¢": 1703,
      "åģ¥åº·": 1704,
      "åħ´": 1705,
      "ç®Ģ": 1706,
      "ail": 1707,
      "ä»¥ä¸Ĭ": 1708,
      "èĥ½å¤Ł": 1709,
      "æľ¨": 1710,
      "ik": 1711,
      "è¾¹": 1712,
      "åī§": 1713,
      "è¿ĩç¨ĭ": 1714,
      "åĩºçİ°": 1715,
      "ates": 1716,
      "ould": 1717,
      "ä½Ĩæĺ¯": 1718,
      "éŃ": 1719,
      "æ±½": 1720,
      "éĢīæĭ©": 1721,
      "æ²»çĸĹ": 1722,
      "åĮĹäº¬": 1723,
      "å®¡": 1724,
      "å®£": 1725,
      "ally": 1726,
      "è¯¾": 1727,
      "å¾Īå¤ļ": 1728,
      "Ġyear": 1729,
      "å½ķ": 1730,
      "ile": 1731,
      "te": 1732,
      "æŁĵ": 1733,
      "clud": 1734,
      "wn": 1735,
      "tern": 1736,
      "ç§ĳåŃ¦": 1737,
      "åħ«": 1738,
      "åİĤ": 1739,
      "åºķ": 1740,
      "é¤": 1741,
      "éĵ¶": 1742,
      "lect": 1743,
      "å®³": 1744,
      "åºĶçĶ¨": 1745,
      "ç¼ĸ": 1746,
      "åºĹ": 1747,
      "å®ŀçİ°": 1748,
      "chool": 1749,
      "Ġac": 1750,
      "Ġ-": 1751,
      "Ġper": 1752,
      "2019": 1753,
      "åĲ¸": 1754,
      "ç¸": 1755,
      "uring": 1756,
      "ä»ĭ": 1757,
      "æ¦": 1758,
      "èİ·å¾Ĺ": 1759,
      "è®Ń": 1760,
      "ä¾Ĩ": 1761,
      "è»į": 1762,
      "Ġtwo": 1763,
      "åħ°": 1764,
      "Ġbec": 1765,
      "æĭħ": 1766,
      "ç¬¬äºĮ": 1767,
      "çĭ¬": 1768,
      "éĿ©": 1769,
      "äº¿": 1770,
      "è§ī": 1771,
      "Ġag": 1772,
      "æłĩåĩĨ": 1773,
      "çªģ": 1774,
      "ä½Ļ": 1775,
      "åĳ³": 1776,
      "éĴ¢": 1777,
      "å°į": 1778,
      "é»ĳ": 1779,
      "è½»": 1780,
      "æĬĹ": 1781,
      "ite": 1782,
      "èģļ": 1783,
      "å¤«": 1784,
      "Ġ4": 1785,
      "æľīéĻĲåħ¬åı¸": 1786,
      "ï¼ļâĢľ": 1787,
      "Ġsc": 1788,
      "17": 1789,
      "çł´": 1790,
      "å¸®": 1791,
      "Ġman": 1792,
      "æĭĽ": 1793,
      "çļĦæĺ¯": 1794,
      "2020": 1795,
      "ï¼ģ": 1796,
      "over": 1797,
      "éº": 1798,
      "ran": 1799,
      "aw": 1800,
      "ä¸įæĸŃ": 1801,
      "ild": 1802,
      "æīĢæľī": 1803,
      "iss": 1804,
      "å¹´çļĦ": 1805,
      "åĨĻ": 1806,
      "pt": 1807,
      "fer": 1808,
      "çĶ³": 1809,
      "ĠAr": 1810,
      "ade": 1811,
      "äº²": 1812,
      "åĸľ": 1813,
      "orm": 1814,
      "we": 1815,
      "å®ĮæĪĲ": 1816,
      "ä¹ĭä¸Ģ": 1817,
      "çº³": 1818,
      "Ġthis": 1819,
      "éĥ¨éĹ¨": 1820,
      "ä½ľçĶ¨": 1821,
      "è§Ħå®ļ": 1822,
      "ä¸´": 1823,
      "æ¿Ģ": 1824,
      "æĹ¥æľ¬": 1825,
      "21": 1826,
      "éķ·": 1827,
      "èµĦæºĲ": 1828,
      "èĭı": 1829,
      "gh": 1830,
      "Ġhave": 1831,
      "å¯Ł": 1832,
      "çĶ·": 1833,
      "å©": 1834,
      "åįĥ": 1835,
      "åıĳçĶŁ": 1836,
      "èĪ¬": 1837,
      "Ġinclud": 1838,
      "åįł": 1839,
      "ilm": 1840,
      "çĶ±äºİ": 1841,
      "æ±¡": 1842,
      "ubl": 1843,
      "éĢģ": 1844,
      "çį": 1845,
      "å°½": 1846,
      "ased": 1847,
      "æŃ»": 1848,
      "è¿°": 1849,
      "è®¤ä¸º": 1850,
      "äºĳ": 1851,
      "14": 1852,
      "åŁºç¡": 1853,
      "ress": 1854,
      "æĤ£èĢħ": 1855,
      "ors": 1856,
      "ll": 1857,
      "oy": 1858,
      "åŁºç¡Ģ": 1859,
      "ç§»": 1860,
      "æ¯į": 1861,
      "æľĿ": 1862,
      "è¾ĵ": 1863,
      "çĳ": 1864,
      "æī§": 1865,
      "äºĨè§£": 1866,
      "è´Ń": 1867,
      "åĩ»": 1868,
      "è¼": 1869,
      "è®²": 1870,
      "ind": 1871,
      "ç»ľ": 1872,
      "è¿Ļæł·": 1873,
      "å·¥ä¸ļ": 1874,
      "åį´": 1875,
      "éĨ": 1876,
      "ç»§": 1877,
      "les": 1878,
      "åıĳçİ°": 1879,
      "èŃ¦": 1880,
      "è¯»": 1881,
      "æİĪ": 1882,
      "merican": 1883,
      "é¦Ĩ": 1884,
      "Ġafter": 1885,
      "ä»Ģä¹Ī": 1886,
      "æĸ¹æ³ķ": 1887,
      "é¢ĨåŁŁ": 1888,
      "old": 1889,
      "çķ¥": 1890,
      "åĨł": 1891,
      "é¡»": 1892,
      "oin": 1893,
      "Ġen": 1894,
      "Ġbeen": 1895,
      "æĺ¥": 1896,
      "æŁĲ": 1897,
      "ç£": 1898,
      "eb": 1899,
      "æĽ²": 1900,
      "ä¸Ģå®ļ": 1901,
      "ä¸įæĺ¯": 1902,
      "ents": 1903,
      "ç«ł": 1904,
      "çľ¼": 1905,
      "13": 1906,
      "urn": 1907,
      "ĠNew": 1908,
      "æĤ¨": 1909,
      "ivers": 1910,
      "æİ§åĪ¶": 1911,
      "ward": 1912,
      "çĹĩ": 1913,
      "ob": 1914,
      "æĴŃ": 1915,
      "ons": 1916,
      "çĻ»": 1917,
      "hn": 1918,
      "æŃĮ": 1919,
      "æľºæŀĦ": 1920,
      "åİĨåı²": 1921,
      "ï¼īãĢĤ": 1922,
      "ç¹": 1923,
      "Ġdis": 1924,
      "ied": 1925,
      "åĬ³": 1926,
      "æĪı": 1927,
      "åĭķ": 1928,
      "å¤§å®¶": 1929,
      "åºŃ": 1930,
      "io": 1931,
      "ä¸ĬçļĦ": 1932,
      "éħ¸": 1933,
      "å®Ŀ": 1934,
      "å°Ħ": 1935,
      "éĸĭ": 1936,
      "Ġdes": 1937,
      "æĹ¶åĢĻ": 1938,
      "æĪĸèĢħ": 1939,
      "æŀĲ": 1940,
      "ely": 1941,
      "60": 1942,
      "Ġother": 1943,
      "åīĤ": 1944,
      "å¨ģ": 1945,
      "æ±ī": 1946,
      "æ¬§": 1947,
      "åĵ¡": 1948,
      "ä»į": 1949,
      "æ¬¢": 1950,
      "ä¸ĥ": 1951,
      "åħ¸": 1952,
      "ä¹Ŀ": 1953,
      "åŃ©åŃĲ": 1954,
      "èīºæľ¯": 1955,
      "ç¨³": 1956,
      "åħ¨çĲĥ": 1957,
      "éļľ": 1958,
      "ä¿ĿæĬ¤": 1959,
      "æĭ¥": 1960,
      "è®¡åĪĴ": 1961,
      "ted": 1962,
      "Ġ198": 1963,
      "hip": 1964,
      "æ´¾": 1965,
      "å¼Ģåıĳ": 1966,
      "Ġup": 1967,
      "oot": 1968,
      "ath": 1969,
      "é¸": 1970,
      "ä¸Ĭæµ·": 1971,
      "ä¹¡": 1972,
      "äºĨä¸Ģ": 1973,
      "éĥ½æĺ¯": 1974,
      "Th": 1975,
      "ç²¾ç¥ŀ": 1976,
      "way": 1977,
      "æ¯Ĵ": 1978,
      "ĠIn": 1979,
      "å½¢æĪĲ": 1980,
      "ç§Ģ": 1981,
      "èĩªçĦ¶": 1982,
      "æ²Ļ": 1983,
      "æĶ»": 1984,
      "Ġout": 1985,
      "ç«¯": 1986,
      "eg": 1987,
      "ĠMar": 1988,
      "å¥ĩ": 1989,
      "åģľ": 1990,
      "Ġwork": 1991,
      "å®Ĺ": 1992,
      "ough": 1993,
      "ä½Ľ": 1994,
      "å¢ŀåĬł": 1995,
      "é¦Ļæ¸¯": 1996,
      "åºı": 1997,
      "ç»¼": 1998,
      "ç½ĳç»ľ": 1999,
      "æĻºèĥ½": 2000,
      "å¾ģ": 2001,
      "ss": 2002,
      "ton": 2003,
      "ings": 2004,
      "uch": 2005,
      "22": 2006,
      "als": 2007,
      "ç¥¨": 2008,
      "é¢Ŀ": 2009,
      "ï¼ĮâĢľ": 2010,
      "198": 2011,
      "Ġover": 2012,
      "å®Ī": 2013,
      "è¿Ļç§į": 2014,
      "é¼": 2015,
      "ä¸°": 2016,
      "å¤®": 2017,
      "è¡¥": 2018,
      "èĨ": 2019,
      "å·Ŀ": 2020,
      "æĶ¯æĮģ": 2021,
      "æī¾": 2022,
      "ç»ĵæŀĦ": 2023,
      "éľĢæ±Ĥ": 2024,
      "æ¾": 2025,
      "çŁŃ": 2026,
      "å·®": 2027,
      "ä¸ªäºº": 2028,
      "çĶ°": 2029,
      "åĽ½åĨħ": 2030,
      "ä»ĸçļĦ": 2031,
      "one": 2032,
      "Ġcomm": 2033,
      "æ±½è½¦": 2034,
      "ä¼¤": 2035,
      "çĪ¶": 2036,
      "çķ¶": 2037,
      "ood": 2038,
      "åħµ": 2039,
      "ç´¢": 2040,
      "åĲĥ": 2041,
      "çİ°åľ¨": 2042,
      "Ġthey": 2043,
      "outh": 2044,
      "åĮ»éĻ¢": 2045,
      "åĬŁèĥ½": 2046,
      "Ġoff": 2047,
      "åŃĺåľ¨": 2048,
      "äº¤éĢļ": 2049,
      "able": 2050,
      "å²ģ": 2051,
      "æĿ¥çļĦ": 2052,
      "åıĤåĬł": 2053,
      "å¾ħ": 2054,
      "ick": 2055,
      "éģİ": 2056,
      "é£ŀ": 2057,
      "æīĺ": 2058,
      "ance": 2059,
      "åĲ¦": 2060,
      "å±Ĭ": 2061,
      "Ġnew": 2062,
      "å§Ķåĳĺ": 2063,
      "éĽ»": 2064,
      "æĪĲç«ĭ": 2065,
      "Ġinto": 2066,
      "Ġact": 2067,
      "ä¸įèĥ½": 2068,
      "Ġim": 2069,
      "æĿ±": 2070,
      "çĿ£": 2071,
      "æ¶²": 2072,
      "æľīåħ³": 2073,
      "æłĳ": 2074,
      "åĨ·": 2075,
      "ft": 2076,
      "ä¸ĢæŃ¥": 2077,
      "åĪ»": 2078,
      "è»Ĭ": 2079,
      "25": 2080,
      "åĪĨæŀĲ": 2081,
      "äº§çĶŁ": 2082,
      "å¸Ń": 2083,
      "éĸĵ": 2084,
      "æĩ": 2085,
      "ä¸ĢèĪ¬": 2086,
      "ock": 2087,
      "å¥¥": 2088,
      "è¡Ĺ": 2089,
      "äº«": 2090,
      "å°ĩ": 2091,
      "vel": 2092,
      "åħ³ç³»": 2093,
      "ä¿ĥ": 2094,
      "ç«ŀ": 2095,
      "å¸®åĬ©": 2096,
      "åĺ": 2097,
      "åľ°æĸ¹": 2098,
      "ä¸ļåĬ¡": 2099,
      "å»ºç«ĭ": 2100,
      "åĪ¶éĢł": 2101,
      "åĲĦç§į": 2102,
      "å¤ı": 2103,
      "å¼Ĥ": 2104,
      "å¹³åı°": 2105,
      "å®¢æĪ·": 2106,
      "orth": 2107,
      "Ġ5": 2108,
      "Ġfilm": 2109,
      "éĢ²": 2110,
      "éĢĻ": 2111,
      "40": 2112,
      "éĻĦ": 2113,
      "è½½": 2114,
      "åĨħå®¹": 2115,
      "ished": 2116,
      "ä¸ºäºĨ": 2117,
      "çı¾": 2118,
      "ç§¯æŀģ": 2119,
      "å¼Ģå±ķ": 2120,
      "anc": 2121,
      "è«": 2122,
      "éĢĲ": 2123,
      "è¿½": 2124,
      "æĪ°": 2125,
      "ç¶ĵ": 2126,
      "æ¥¼": 2127,
      "å¸Ŀ": 2128,
      "Ġatt": 2129,
      "èĸ": 2130,
      "pe": 2131,
      "ral": 2132,
      "rough": 2133,
      "çĶ²": 2134,
      "ball": 2135,
      "orld": 2136,
      "On": 2137,
      "ook": 2138,
      "ç´§": 2139,
      "å¸ĮæľĽ": 2140,
      "Ġhim": 2141,
      "åĪ©çĶ¨": 2142,
      "å·¦": 2143,
      "èĵ": 2144,
      "æĭ¥æľī": 2145,
      "ex": 2146,
      "æĪĲåĬŁ": 2147,
      "é½": 2148,
      "ç»ıèĲ¥": 2149,
      "æį¢": 2150,
      "åĽº": 2151,
      "æİ¢": 2152,
      "æĿ¾": 2153,
      "ä¹ĭéĹ´": 2154,
      "èĻ½": 2155,
      "éģĩ": 2156,
      "Ġshe": 2157,
      "Ġev": 2158,
      "å®ģ": 2159,
      "Ġpre": 2160,
      "è´§": 2161,
      "åŁºæľ¬": 2162,
      "ase": 2163,
      "ç»¿": 2164,
      "å½©": 2165,
      "æĻļ": 2166,
      "ä½įäºİ": 2167,
      "æ°´å¹³": 2168,
      "åª": 2169,
      "æ¤į": 2170,
      "ä½ľåĵģ": 2171,
      "Ġtime": 2172,
      "æķĻåŃ¦": 2173,
      "å¯¼èĩ´": 2174,
      "ĠLe": 2175,
      "70": 2176,
      "è¡ĮæĶ¿": 2177,
      ").": 2178,
      "åĵģçīĮ": 2179,
      "çĸ¾": 2180,
      "è§£åĨ³": 2181,
      "ä¼Ĭ": 2182,
      "ĠCom": 2183,
      "Ġserv": 2184,
      "èĹı": 2185,
      "è´Łè´£": 2186,
      "ision": 2187,
      "ix": 2188,
      "ç»¼åĲĪ": 2189,
      "ç»©": 2190,
      "è¿Ľåħ¥": 2191,
      "åĲ¬": 2192,
      "çĻľ": 2193,
      "gan": 2194,
      "Ġpr": 2195,
      "ren": 2196,
      "è¿Ļä¸Ģ": 2197,
      "æĸ°çļĦ": 2198,
      "çīĽ": 2199,
      "æıĲåįĩ": 2200,
      "uman": 2201,
      "Ġall": 2202,
      "çĻľé£İ": 2203,
      "çĻ½çĻľé£İ": 2204,
      "éĩĩçĶ¨": 2205,
      "äººä»¬": 2206,
      "éĢĢ": 2207,
      "ake": 2208,
      "èįī": 2209,
      "äºĪ": 2210,
      "ury": 2211,
      "åı³": 2212,
      "Ġloc": 2213,
      "åĽ°": 2214,
      "åħ§": 2215,
      "23": 2216,
      "è¿ĲåĬ¨": 2217,
      "èĽ": 2218,
      "ç»į": 2219,
      "éĢłæĪĲ": 2220,
      "ever": 2221,
      "å¡Ķ": 2222,
      "ç»ĥ": 2223,
      "ä¹ĭåĲİ": 2224,
      "éĻĪ": 2225,
      "âĢĶâĢĶ": 2226,
      "æĦ¿": 2227,
      "æĪĳåĽ½": 2228,
      "åĲī": 2229,
      "ä¸Ńå¤®": 2230,
      "inal": 2231,
      "ä½³": 2232,
      "ont": 2233,
      "å»¶": 2234,
      "æ¯Ķè¾ĥ": 2235,
      "åłĤ": 2236,
      "éĢı": 2237,
      "ä¼¼": 2238,
      "å¿ħé¡»": 2239,
      "æ°¸": 2240,
      "ç¼º": 2241,
      "ä¼łç»Ł": 2242,
      "ason": 2243,
      "æĽ´å¤ļ": 2244,
      "ãĢĭï¼Į": 2245,
      "å¢ŀéķ¿": 2246,
      "è¾¾åĪ°": 2247,
      "åģĩ": 2248,
      "è½®": 2249,
      "Ġbet": 2250,
      "Ġund": 2251,
      "ople": 2252,
      "çĽŁ": 2253,
      "æıĲåĩº": 2254,
      "æľīæķĪ": 2255,
      "ram": 2256,
      "æįŁ": 2257,
      "æ¯ĶèµĽ": 2258,
      "èĥľ": 2259,
      "ä¼ļè®®": 2260,
      "ics": 2261,
      "Ġsec": 2262,
      "æķ£": 2263,
      "é¥®": 2264,
      "ä¹ħ": 2265,
      "æ´ĭ": 2266,
      "duc": 2267,
      "24": 2268,
      "åĪ¤": 2269,
      "è¿ĺæĺ¯": 2270,
      "éĽ·": 2271,
      "Ġ20": 2272,
      "çĶļ": 2273,
      "èĢĮä¸Ķ": 2274,
      "æ¯ķ": 2275,
      "å²Ľ": 2276,
      "Ġgro": 2277,
      "ç¬¬ä¸ī": 2278,
      "åł´": 2279,
      "åħ³äºİ": 2280,
      "ose": 2281,
      "éļıçĿĢ": 2282,
      "2018": 2283,
      "å¥Ĺ": 2284,
      "çĶµåŃĲ": 2285,
      "é¢ĳ": 2286,
      "è´£ä»»": 2287,
      "Ġcol": 2288,
      "ious": 2289,
      "è³½": 2290,
      "ä¸½": 2291,
      "èĮ¶": 2292,
      "ä¸Ģèµ·": 2293,
      "Ġwhen": 2294,
      "ames": 2295,
      "çĶ¨äºİ": 2296,
      "çŁ¥è¯Ĩ": 2297,
      "ä¸ĢçĽ´": 2298,
      "ç¨İ": 2299,
      "çļĦå¤§": 2300,
      "çī¹åĪ«": 2301,
      "bum": 2302,
      "ç³»åĪĹ": 2303,
      "ä¸įä»ħ": 2304,
      "äº¦": 2305,
      "çĪ¾": 2306,
      "æĶ¿çŃĸ": 2307,
      "è®¸å¤ļ": 2308,
      "Ġkn": 2309,
      "rib": 2310,
      "ict": 2311,
      "ä¿ĿæĮģ": 2312,
      "cess": 2313,
      "att": 2314,
      "ann": 2315,
      "è½¯": 2316,
      "è¯ī": 2317,
      "æ¡¥": 2318,
      "èį£": 2319,
      "enc": 2320,
      "åĬª": 2321,
      "çİ°ä»£": 2322,
      "æ©Ł": 2323,
      "ĠAmerican": 2324,
      "èıľ": 2325,
      "çĶŁçī©": 2326,
      "åıĸå¾Ĺ": 2327,
      "son": 2328,
      "åıĹåĪ°": 2329,
      "ah": 2330,
      "Ġwould": 2331,
      "å´": 2332,
      "æ°§": 2333,
      "æĢ¥": 2334,
      "ween": 2335,
      "ä»¥ä¸ĭ": 2336,
      "è¿ĺæľī": 2337,
      "çĽ®æłĩ": 2338,
      "ç·ļ": 2339,
      "åį±": 2340,
      "èĭ¥": 2341,
      "è´µ": 2342,
      "å®ŀæĸ½": 2343,
      "ĠAl": 2344,
      "åħ±åĲĮ": 2345,
      "reat": 2346,
      "è¡Įä¸º": 2347,
      "åĵĪ": 2348,
      "ollow": 2349,
      "æĸ¹æ¡Ī": 2350,
      "çĴ": 2351,
      "éĩįçĤ¹": 2352,
      "istant": 2353,
      "çĮ®": 2354,
      "ä»ª": 2355,
      "é¢Ĩå¯¼": 2356,
      "ä»Ĭå¹´": 2357,
      "Ġbu": 2358,
      "èĺ": 2359,
      "æĮģç»Ń": 2360,
      "æķĳ": 2361,
      "æĭ¿": 2362,
      "åĩĢ": 2363,
      "ale": 2364,
      "æĮ¥": 2365,
      "æĽ´åĬł": 2366,
      "åºĶè¯¥": 2367,
      "å¦Ĥä½ķ": 2368,
      "iversity": 2369,
      "ç»Ŀ": 2370,
      "åºĨ": 2371,
      "ĠUnited": 2372,
      "çĶ¨æĪ·": 2373,
      "åįĪ": 2374,
      "æĿ¡ä»¶": 2375,
      "iel": 2376,
      "èģĮä¸ļ": 2377,
      "è·Ł": 2378,
      "é«Ķ": 2379,
      "çļĩ": 2380,
      "ä»ĭç»į": 2381,
      "Ġunder": 2382,
      "Ġrele": 2383,
      "è§ĦåĪĴ": 2384,
      "eat": 2385,
      "éĴŁ": 2386,
      "å°ģ": 2387,
      "èĢĲ": 2388,
      "åªĴ": 2389,
      "åıĳå¸ĥ": 2390,
      "è¿İ": 2391,
      "Ġmore": 2392,
      "æĬ¥åĳĬ": 2393,
      "éģ¿": 2394,
      "è¶ħè¿ĩ": 2395,
      "æĹħæ¸¸": 2396,
      "oth": 2397,
      "Ġret": 2398,
      "èĥĮ": 2399,
      "æ³¨æĦı": 2400,
      "èĤī": 2401,
      "Ġcons": 2402,
      "çĶµå½±": 2403,
      "ph": 2404,
      "éĽ¨": 2405,
      "çŁ¥éģĵ": 2406,
      "Ġonly": 2407,
      "Ġpe": 2408,
      "å°ļ": 2409,
      "ç«¥": 2410,
      "Ġduring": 2411,
      "form": 2412,
      "è¨Ń": 2413,
      "ee": 2414,
      "æĵį": 2415,
      "uary": 2416,
      "é¥°": 2417,
      "100": 2418,
      "åİħ": 2419,
      "éĿł": 2420,
      "èĻ½çĦ¶": 2421,
      "æľªæĿ¥": 2422,
      "åºĵ": 2423,
      "æ¶Īè´¹": 2424,
      "åıĤä¸İ": 2425,
      "æĿĤ": 2426,
      "åħ¨éĿ¢": 2427,
      "è¿Ľä¸ĢæŃ¥": 2428,
      "çĽ´æİ¥": 2429,
      "ä»ĺ": 2430,
      "pr": 2431,
      "ä»»ä½ķ": 2432,
      "éģ¸": 2433,
      "èĪ¹": 2434,
      "æ£®": 2435,
      "Ġ6": 2436,
      "åĪĺ": 2437,
      "æ³Ľ": 2438,
      "az": 2439,
      "é£Łåĵģ": 2440,
      "Ġ197": 2441,
      "ä»·åĢ¼": 2442,
      "olog": 2443,
      "çĤİ": 2444,
      "ä¹°": 2445,
      "å®¶åºŃ": 2446,
      "Ġreg": 2447,
      "éģĹ": 2448,
      "Ġagain": 2449,
      "å¾ĹåĪ°": 2450,
      "ĠSh": 2451,
      "æľŁéĹ´": 2452,
      "Ġteam": 2453,
      "Ġcent": 2454,
      "éļĬ": 2455,
      "é¡º": 2456,
      "çĵ¦": 2457,
      "Ġyears": 2458,
      "Ġbetween": 2459,
      "Ġwhere": 2460,
      "éĺ¶": 2461,
      "ev": 2462,
      "ç½ª": 2463,
      "Ġalbum": 2464,
      "åı¶": 2465,
      "str": 2466,
      "Ġabout": 2467,
      "é¤Ĳ": 2468,
      "çģµ": 2469,
      "ï¼īãĢģ": 2470,
      "å®ŀéĻħ": 2471,
      "ince": 2472,
      "Ġmost": 2473,
      "éĹ»": 2474,
      "ular": 2475,
      "åıªæľī": 2476,
      "aus": 2477,
      "ä¸ĵå®¶": 2478,
      "æ¢°": 2479,
      "èĶ": 2480,
      "çĽĸ": 2481,
      "æĶ¿æ²»": 2482,
      "Ġco": 2483,
      "éĶĢåĶ®": 2484,
      "28": 2485,
      "usic": 2486,
      "Ġear": 2487,
      "åĨ²": 2488,
      "çģ£": 2489,
      "æ¥Ń": 2490,
      "Ġrem": 2491,
      "æ³ķå¾ĭ": 2492,
      "ĠCol": 2493,
      "ier": 2494,
      "è¿Ļæĺ¯": 2495,
      "Ġpubl": 2496,
      "ç»§ç»Ń": 2497,
      "ener": 2498,
      "æķĻå¸Ī": 2499,
      "å·¨": 2500,
      "çĶ³è¯·": 2501,
      "inn": 2502,
      "æŃ£å¼ı": 2503,
      "æ´Ľ": 2504,
      "éĩĳèŀį": 2505,
      "Ġthree": 2506,
      "ç¨±": 2507,
      "æ³°": 2508,
      "éĿ¢ç§¯": 2509,
      "éĻĨ": 2510,
      "çĶļèĩ³": 2511,
      "ç²ī": 2512,
      "è°¢": 2513,
      "æĿ¥è¯´": 2514,
      "ä»·æł¼": 2515,
      "çĸ¾çĹħ": 2516,
      "äººæīį": 2517,
      "çĥĪ": 2518,
      "ank": 2519,
      "æ¸¸æĪı": 2520,
      "irect": 2521,
      "é¦¬": 2522,
      "hes": 2523,
      "èĦ±": 2524,
      "æĢ§çļĦ": 2525,
      "åĮ»çĸĹ": 2526,
      "åĬªåĬĽ": 2527,
      "æŀ¶": 2528,
      "çİ©": 2529,
      "Ġform": 2530,
      "æĮīçħ§": 2531,
      "Ġass": 2532,
      "è·Ŀ": 2533,
      "ootball": 2534,
      "ç»ĵåĲĪ": 2535,
      "éĽĦ": 2536,
      "Ġthrough": 2537,
      "è¡¨çİ°": 2538,
      "è¯Ĭ": 2539,
      "è®¡ç®Ĺ": 2540,
      "ities": 2541,
      "è§Ħæ¨¡": 2542,
      "éĴĪ": 2543,
      "fore": 2544,
      "æĪĳä»¬çļĦ": 2545,
      "oun": 2546,
      "eries": 2547,
      "åħ©": 2548,
      "èĦĳ": 2549,
      "çĸ«æĥħ": 2550,
      "Ġsub": 2551,
      "ä½ĵç³»": 2552,
      "åĿĹ": 2553,
      "2017": 2554,
      "ily": 2555,
      "äºŀ": 2556,
      "æī©": 2557,
      "ç¬¦": 2558,
      "æĺ¾ç¤º": 2559,
      "hen": 2560,
      "åĨ³å®ļ": 2561,
      "èº«ä½ĵ": 2562,
      "åŁ¹åħ»": 2563,
      "åıĺåĮĸ": 2564,
      "air": 2565,
      "æķħäºĭ": 2566,
      "Ġstud": 2567,
      "Ġind": 2568,
      "æľĢåĲİ": 2569,
      "any": 2570,
      "ç»ıè¿ĩ": 2571,
      "Ġ@": 2572,
      "enn": 2573,
      "çļĦæĹ¶åĢĻ": 2574,
      "åŁºéĩĳ": 2575,
      "Ġsup": 2576,
      "éĤ£ä¹Ī": 2577,
      "Ġdec": 2578,
      "ists": 2579,
      "åºŁ": 2580,
      "éľ²": 2581,
      "èĪŀ": 2582,
      "aj": 2583,
      "çŃ¾": 2584,
      "åĬłå¼º": 2585,
      "éĹľ": 2586,
      "ä¸įä¼ļ": 2587,
      "è¿ĩç¨ĭä¸Ń": 2588,
      "æ¶ī": 2589,
      "è®°èĢħ": 2590,
      "éĶĻ": 2591,
      "Ġsong": 2592,
      "åİŁåĽł": 2593,
      "ä¸¤ä¸ª": 2594,
      "çļĦåıĳå±ķ": 2595,
      "ä¼ĳ": 2596,
      "assistant": 2597,
      "ohn": 2598,
      "å¡ŀ": 2599,
      "Ġschool": 2600,
      "Ġgr": 2601,
      "çŁ¿": 2602,
      "èĥŀ": 2603,
      "åĢŁ": 2604,
      "æİª": 2605,
      "æĹ¶ä»£": 2606,
      "ley": 2607,
      "æ´Ĺ": 2608,
      "human": 2609,
      "åĲ¯": 2610,
      "æķĪæŀľ": 2611,
      "ered": 2612,
      "èĮĥåĽ´": 2613,
      "Ġused": 2614,
      "Ġ7": 2615,
      "Ġrecord": 2616,
      "Ġnum": 2617,
      "ident": 2618,
      "è®¿": 2619,
      "éĩİ": 2620,
      "Ġlater": 2621,
      "Ġ8": 2622,
      "çĨŁ": 2623,
      "æĶ¹éĿ©": 2624,
      "åºĬ": 2625,
      "ä»¥æĿ¥": 2626,
      "ual": 2627,
      "çĬ¯": 2628,
      "åľ£": 2629,
      "Ġest": 2630,
      "Ġpol": 2631,
      "Ġfollow": 2632,
      "åĳĺå·¥": 2633,
      "Ã©": 2634,
      "å¡ĳ": 2635,
      "å§Ķåĳĺä¼ļ": 2636,
      "ä¸Ģç§į": 2637,
      "æĭį": 2638,
      "éŁ³ä¹Ĳ": 2639,
      "æĿŁ": 2640,
      "æ±ł": 2641,
      "é¹": 2642,
      "èĻĳ": 2643,
      "æģ©": 2644,
      "26": 2645,
      "oci": 2646,
      "This": 2647,
      "æĺ¯åľ¨": 2648,
      "äº®": 2649,
      "ĠEng": 2650,
      "ĠSc": 2651,
      "èģĶåĲĪ": 2652,
      "æ··": 2653,
      "Ġcan": 2654,
      "Ġsy": 2655,
      "éĵ¶è¡Į": 2656,
      "ç½²": 2657,
      "ouse": 2658,
      "ä¿Ŀéļľ": 2659,
      "Ġso": 2660,
      "Ġmov": 2661,
      "ä¸°å¯Į": 2662,
      "ä¸Ģæ¬¡": 2663,
      "27": 2664,
      "ç©ºéĹ´": 2665,
      "sh": 2666,
      "äº¤æµģ": 2667,
      "åĭĴ": 2668,
      "æİ¥åıĹ": 2669,
      "è°Ī": 2670,
      "æľĭ": 2671,
      "ç¨³å®ļ": 2672,
      "çĶŁæĢģ": 2673,
      "é²ľ": 2674,
      "ĠTh": 2675,
      "Ġinter": 2676,
      "çĽĽ": 2677,
      "èĥ½æºĲ": 2678,
      "çĸĳ": 2679,
      "ä¸Ńåįİ": 2680,
      "è¯¢": 2681,
      "ĠInd": 2682,
      "æŃ¤å¤ĸ": 2683,
      "ç¤¼": 2684,
      "ä¾ĭå¦Ĥ": 2685,
      "Ġend": 2686,
      "ä¿ĥè¿Ľ": 2687,
      "æĸĹ": 2688,
      "Ġthem": 2689,
      "åĬ³åĬ¨": 2690,
      "ä¹İ": 2691,
      "åĪĨåĪ«": 2692,
      "Ġqu": 2693,
      "Ġmade": 2694,
      "éĻ¤äºĨ": 2695,
      "åĽ¢éĺŁ": 2696,
      "Ġsing": 2697,
      "Ġwrit": 2698,
      "èģĶç½ĳ": 2699,
      "ague": 2700,
      "å®ŀéªĮ": 2701,
      "å®¹æĺĵ": 2702,
      "Ġ196": 2703,
      "ash": 2704,
      "ober": 2705,
      "Ġrel": 2706,
      "è®¯": 2707,
      "cent": 2708,
      "ç¯ĩ": 2709,
      "Ġsecond": 2710,
      "duct": 2711,
      "Ġpop": 2712,
      "æ°ı": 2713,
      "Ġseason": 2714,
      "Ġ9": 2715,
      "åŁ¹è®Ń": 2716,
      "emb": 2717,
      "éĽ¶": 2718,
      "æ¾³": 2719,
      "æ¨¡å¼ı": 2720,
      "å¤ľ": 2721,
      "ç©¿": 2722,
      "abl": 2723,
      "æħ¢": 2724,
      "å»ºè®®": 2725,
      "ç³ĸ": 2726,
      "åĪ¶åº¦": 2727,
      "å©ļ": 2728,
      "Ġfound": 2729,
      "ĠUniversity": 2730,
      "è¯Ĺ": 2731,
      "åĩıå°ĳ": 2732,
      "Ġthere": 2733,
      "å¹ħ": 2734,
      "éĩĬ": 2735,
      "åĵ¥": 2736,
      "å¹¶ä¸Ķ": 2737,
      "Ġme": 2738,
      "round": 2739,
      "2016": 2740,
      "ating": 2741,
      "æĺ¯ä¸Ģç§į": 2742,
      "ä¼¯": 2743,
      "çļĦé«ĺ": 2744,
      "ç»ĵæŀľ": 2745,
      "æĸ½å·¥": 2746,
      "æ¯ķä¸ļ": 2747,
      "è¿Ŀ": 2748,
      "å±ĭ": 2749,
      "ç§ĺ": 2750,
      "çİī": 2751,
      "ield": 2752,
      "ement": 2753,
      "éĴ±": 2754,
      "å°¤": 2755,
      "197": 2756,
      "èı¯": 2757,
      "æ¸Ĳ": 2758,
      "èĻŁ": 2759,
      "è¯į": 2760,
      "ived": 2761,
      "ĠStates": 2762,
      "Âł": 2763,
      "ç»ıéªĮ": 2764,
      "ä¿Ħ": 2765,
      "åĪļ": 2766,
      "èľ": 2767,
      "è´«": 2768,
      "åİļ": 2769,
      "Ġdist": 2770,
      "æ¯Ľ": 2771,
      "ative": 2772,
      "åĨĮ": 2773,
      "ten": 2774,
      "ĠZ": 2775,
      "resent": 2776,
      "èĴĻ": 2777,
      "éĿĻ": 2778,
      "ife": 2779,
      "Ġbecame": 2780,
      "é¡¶": 2781,
      "ç¦ģ": 2782,
      "æİ¨åĬ¨": 2783,
      "è¯ļ": 2784,
      "çĹĽ": 2785,
      "Ġthen": 2786,
      "å¹´æĿ¥": 2787,
      "ional": 2788,
      "åį«çĶŁ": 2789,
      "å¤§éĩı": 2790,
      "åĶĲ": 2791,
      "èŃ°": 2792,
      "åĿļæĮģ": 2793,
      "çłĶåıĳ": 2794,
      "æļ´": 2795,
      "Ġchar": 2796,
      "èıĮ": 2797,
      "Ġthan": 2798,
      "æľĭåıĭ": 2799,
      "éĦ": 2800,
      "è¿ª": 2801,
      "çīĻ": 2802,
      "ä¹ĺ": 2803,
      "åĤ¨": 2804,
      "éª¨": 2805,
      "é±": 2806,
      "ĠCl": 2807,
      "éģĭ": 2808,
      "çļĦæĸ°": 2809,
      "èĭ¦": 2810,
      "æķ¸": 2811,
      "Ġent": 2812,
      "ä¼ĺç§Ģ": 2813,
      "çĦ¡": 2814,
      "ific": 2815,
      "ä¸»ä»»": 2816,
      "çĩĥ": 2817,
      "iver": 2818,
      "pen": 2819,
      "æĺ¯åĲ¦": 2820,
      "æľºæ¢°": 2821,
      "ä¼ĺåĬ¿": 2822,
      "è¯º": 2823,
      "ç¥ĸ": 2824,
      "è®¾æĸ½": 2825,
      "å¸ģ": 2826,
      "é¡¾": 2827,
      "éĶ®": 2828,
      "Ġfl": 2829,
      "çĶŁåĳ½": 2830,
      "åĽłç´ł": 2831,
      "æĹłæ³ķ": 2832,
      "æ³ķåĽ½": 2833,
      "ins": 2834,
      "æī§è¡Į": 2835,
      "èģ¯": 2836,
      "æľīçļĦ": 2837,
      "åħ¬éĩĮ": 2838,
      "çľĭåĪ°": 2839,
      "ines": 2840,
      "éĢĶ": 2841,
      "å¹¿æ³Ľ": 2842,
      "hy": 2843,
      "80": 2844,
      "iew": 2845,
      "ç»ĦæĪĲ": 2846,
      "åĳ¼": 2847,
      "åĮºåŁŁ": 2848,
      "29": 2849,
      "å³°": 2850,
      "æ±¡æŁĵ": 2851,
      "Ġspec": 2852,
      "ä¸¥éĩį": 2853,
      "cc": 2854,
      "èĥ¶": 2855,
      "ãĢĭãĢģ": 2856,
      "å®ľ": 2857,
      "ç´¯": 2858,
      "å½Ĵ": 2859,
      "2015": 2860,
      "ert": 2861,
      "erm": 2862,
      "åħ³æ³¨": 2863,
      "ä¼´": 2864,
      "äºĭä¸ļ": 2865,
      "çĪĨ": 2866,
      "ç¡¬": 2867,
      "æĢ§èĥ½": 2868,
      "ç¬Ķ": 2869,
      "èĽĭ": 2870,
      "ject": 2871,
      "iam": 2872,
      "å½¢å¼ı": 2873,
      "ĠBr": 2874,
      "è®¨": 2875,
      "æ´¥": 2876,
      "è´¸": 2877,
      "çĳŀ": 2878,
      "ä¸ĩåħĥ": 2879,
      "æİ¨è¿Ľ": 2880,
      "overn": 2881,
      "åºĦ": 2882,
      "æĸ¹åĲĳ": 2883,
      "è¶£": 2884,
      "è®¢": 2885,
      "Ġfour": 2886,
      "ĠSp": 2887,
      "å±ŀäºİ": 2888,
      "Ġknown": 2889,
      "Ġed": 2890,
      "é²ģ": 2891,
      "çłģ": 2892,
      "ä¸įåĲĮçļĦ": 2893,
      "Ġdef": 2894,
      "oss": 2895,
      "è©²": 2896,
      "æľĢç»Ī": 2897,
      "åĶ±": 2898,
      "èĩªåĬ¨": 2899,
      "èĲ¨": 2900,
      "Ġtrans": 2901,
      "éļĶ": 2902,
      "æł¸å¿ĥ": 2903,
      "ike": 2904,
      "ĠPro": 2905,
      "æĪª": 2906,
      "çİ°åľº": 2907,
      "ĠWar": 2908,
      "æĹĹ": 2909,
      "Ġam": 2910,
      "âĢĿãĢģ": 2911,
      "Ġwhile": 2912,
      "éĽħ": 2913,
      "çŃĶ": 2914,
      "æīįèĥ½": 2915,
      "ç¸½": 2916,
      "Ġbeing": 2917,
      "Ġ194": 2918,
      "æŃ£åľ¨": 2919,
      "Ġsome": 2920,
      "æĺł": 2921,
      "Ġ10": 2922,
      "æ¹¾": 2923,
      "é±¼": 2924,
      "Ġcall": 2925,
      "Ġstr": 2926,
      "æľ«": 2927,
      "è§¦": 2928,
      "Ġlar": 2929,
      "ä¸»ä¹ī": 2930,
      "ina": 2931,
      "èĢĥè¯ķ": 2932,
      "åĳĪ": 2933,
      "åĿĢ": 2934,
      "Ġsuch": 2935,
      "æĿĢ": 2936,
      "éĢļå¸¸": 2937,
      "é£İéĻ©": 2938,
      "Ġmon": 2939,
      "Ġdirect": 2940,
      "äº¡": 2941,
      "Ġprov": 2942,
      "å®Įåħ¨": 2943,
      "ç¨®": 2944,
      "éĵ¾": 2945,
      "çļĦéĩįè¦ģ": 2946,
      "194": 2947,
      "æ¶¦": 2948,
      "äººç±»": 2949,
      "åĬŀåħ¬": 2950,
      "éĻįä½İ": 2951,
      "æ¢¦": 2952,
      "æ£ĢæŁ¥": 2953,
      "èĨľ": 2954,
      "rap": 2955,
      "æĮĳ": 2956,
      "velop": 2957,
      "ĠSchool": 2958,
      "äº¿åħĥ": 2959,
      "ern": 2960,
      "ç½ĳç«Ļ": 2961,
      "çº¸": 2962,
      "ept": 2963,
      "æľĢé«ĺ": 2964,
      "å²Ĺ": 2965,
      "other": 2966,
      "å¹ķ": 2967,
      "ä½ĵçļĦ": 2968,
      "çİ¯ä¿Ŀ": 2969,
      "çµ±": 2970,
      "ä¸Ģæł·": 2971,
      "è¸": 2972,
      "ä»İèĢĮ": 2973,
      "âĢĻ": 2974,
      "éķ¿æľŁ": 2975,
      "æ²¿": 2976,
      "ç®±": 2977,
      "Ġset": 2978,
      "åĮĸåŃ¦": 2979,
      "åıĬæĹ¶": 2980,
      "æ§": 2981,
      "è·µ": 2982,
      "ä½ĵèĤ²": 2983,
      "æĢĢ": 2984,
      "æĿ¥èĩª": 2985,
      "æĶ¶åħ¥": 2986,
      "èĳ£": 2987,
      "ä¹ĭåīį": 2988,
      "åĬłåħ¥": 2989,
      "æķĻæİĪ": 2990,
      "åīĩ": 2991,
      "åı¬": 2992,
      "å¹¸": 2993,
      "ç¡®ä¿Ŀ": 2994,
      "çī©è´¨": 2995,
      "ä¸Ŀ": 2996,
      "æĺ¯ä¸Ģä¸ª": 2997,
      "çī¹èī²": 2998,
      "æĪĲæľ¬": 2999,
      "aid": 3000,
      "åĩºäºĨ": 3001,
      "ures": 3002,
      "åĢĳ": 3003,
      "éĩįè¦ģçļĦ": 3004,
      "Ġelect": 3005,
      "Ġseries": 3006,
      "ä¸»é¢ĺ": 3007,
      "æĳĦ": 3008,
      "ĠAust": 3009,
      "der": 3010,
      "Ġhigh": 3011,
      "ä¹Łæľī": 3012,
      "æ¦Ĥ": 3013,
      "ç«ŀäºī": 3014,
      "ä»»åĬ¡": 3015,
      "éĺ¶æ®µ": 3016,
      "äº¤æĺĵ": 3017,
      "å®ĥä»¬": 3018,
      "æĪĺçķ¥": 3019,
      "è¾Ĩ": 3020,
      "å®«": 3021,
      "æĪĳçļĦ": 3022,
      "åĺī": 3023,
      "èĤ¤": 3024,
      "åįıä¼ļ": 3025,
      "ä¼°": 3026,
      "Ġ17": 3027,
      "è°ĥæŁ¥": 3028,
      "éĽª": 3029,
      "Ġbefore": 3030,
      "Ġwell": 3031,
      "åĬłå·¥": 3032,
      "åĵª": 3033,
      "éģĶ": 3034,
      "ä¹¦è®°": 3035,
      "ç»Ĩèĥŀ": 3036,
      "its": 3037,
      "ç¾ħ": 3038,
      "Ġshow": 3039,
      "èµ·æĿ¥": 3040,
      "å°ıæĹ¶": 3041,
      "äºĭä»¶": 3042,
      "Ġexp": 3043,
      "35": 3044,
      "ç§ģ": 3045,
      "åħħåĪĨ": 3046,
      "é½Ĳ": 3047,
      "å¿ĥçĲĨ": 3048,
      "31": 3049,
      "æİĮ": 3050,
      "ron": 3051,
      "æĢĿæĥ³": 3052,
      "ĠWorld": 3053,
      "Ġincluding": 3054,
      "lev": 3055,
      "è¿ĻéĩĮ": 3056,
      "Ġpeople": 3057,
      "æ¢ħ": 3058,
      "Ġinv": 3059,
      "åħ¬åħ±": 3060,
      "ounty": 3061,
      "åħĪè¿Ľ": 3062,
      "æ´ģ": 3063,
      "èµĦéĩĳ": 3064,
      "æľĹ": 3065,
      "195": 3066,
      "æĽ¼": 3067,
      "åĪ¶ä½ľ": 3068,
      "Ġbl": 3069,
      "çµĦ": 3070,
      "ä¸įè¿ĩ": 3071,
      "ute": 3072,
      "åĩºçļĦ": 3073,
      "ve": 3074,
      "Ġgame": 3075,
      "å½ĵåľ°": 3076,
      "After": 3077,
      "åĬ±": 3078,
      "åı¥": 3079,
      "Ġart": 3080,
      "åħ±åĴĮ": 3081,
      "æ£Ģæµĭ": 3082,
      "ä¿Ŀè¯ģ": 3083,
      "èģĺ": 3084,
      "åĪº": 3085,
      "è¨Ī": 3086,
      "å§Ĩ": 3087,
      "åĭĻ": 3088,
      "Ġdo": 3089,
      "ç§ĭ": 3090,
      "å¯»": 3091,
      "åĿĲ": 3092,
      "çĦ¶èĢĮ": 3093,
      "æĪĲç»©": 3094,
      "è¡£": 3095,
      "éĮ": 3096,
      "ise": 3097,
      "Ġorig": 3098,
      "å¼ķèµ·": 3099,
      "%ï¼Į": 3100,
      "åħ¼": 3101,
      "éĺ»": 3102,
      "éģ¿åħį": 3103,
      "ounc": 3104,
      "ä¸įåı¯": 3105,
      "æİªæĸ½": 3106,
      "ained": 3107,
      "æĹ¢": 3108,
      "èªī": 3109,
      "æĿ¨": 3110,
      "let": 3111,
      "åĨ°": 3112,
      "æĮĩå¯¼": 3113,
      "til": 3114,
      "åĪĽéĢł": 3115,
      "ired": 3116,
      "Ġinc": 3117,
      "Ġplayers": 3118,
      "une": 3119,
      "åı¦å¤ĸ": 3120,
      "ä¸ĸçºª": 3121,
      "Ġfam": 3122,
      "owever": 3123,
      "èĢģå¸Ī": 3124,
      "è°·": 3125,
      "ĠBrit": 3126,
      "very": 3127,
      "åŁºåľ°": 3128,
      "é¼ĵ": 3129,
      "åĪĨéĴŁ": 3130,
      "ays": 3131,
      "erman": 3132,
      "å½ĵæĹ¶": 3133,
      "éģŃ": 3134,
      "ç¸£": 3135,
      "ars": 3136,
      "Ġfootball": 3137,
      "å¸¦æĿ¥": 3138,
      "ne": 3139,
      "ä¼¦": 3140,
      "æľīä¸Ģ": 3141,
      "è°ĥæķ´": 3142,
      "ĠYork": 3143,
      "ĠBl": 3144,
      "æ±ĩ": 3145,
      "å¿«éĢŁ": 3146,
      "Ġbro": 3147,
      "ull": 3148,
      "Ġadd": 3149,
      "éĸĢ": 3150,
      "å¼Ł": 3151,
      "å²¸": 3152,
      "åºĶå½ĵ": 3153,
      "ç¡®å®ļ": 3154,
      "çĶµè§Ĩ": 3155,
      "ower": 3156,
      "Ġlead": 3157,
      "arl": 3158,
      "Ġnumber": 3159,
      "Al": 3160,
      "å«": 3161,
      "ĠIs": 3162,
      "ç¼©": 3163,
      "Ġgo": 3164,
      "åĮĸçļĦ": 3165,
      "æ»ĳ": 3166,
      "éĵģè·¯": 3167,
      "åĬĽéĩı": 3168,
      "æĵįä½ľ": 3169,
      "å¾ŀ": 3170,
      "å®ĩ": 3171,
      "Ġback": 3172,
      "æ°ĳæĹı": 3173,
      "ç´Ħ": 3174,
      "ä¾§": 3175,
      "èĩªçĶ±": 3176,
      "æĹ¶æľŁ": 3177,
      "urch": 3178,
      "åİĭåĬĽ": 3179,
      "çĽĺ": 3180,
      "å¹´åº¦": 3181,
      "196": 3182,
      "è¯¾ç¨ĭ": 3183,
      "mp": 3184,
      "2014": 3185,
      "æĹ§": 3186,
      "Ġ195": 3187,
      "Ġacc": 3188,
      "èªį": 3189,
      "åĪĳ": 3190,
      "åķĨä¸ļ": 3191,
      "çĦ¶åĲİ": 3192,
      "Ġsur": 3193,
      "Ġsign": 3194,
      "erson": 3195,
      "å·¥èīº": 3196,
      "æ¢ģ": 3197,
      "è¦ĸ": 3198,
      "éļĨ": 3199,
      "æľºåħ³": 3200,
      "èĩº": 3201,
      "çģ¾": 3202,
      "å¯¦": 3203,
      "æıı": 3204,
      "Ġagainst": 3205,
      "åľĨ": 3206,
      "åĿ¦": 3207,
      "ä½łçļĦ": 3208,
      "æħ§": 3209,
      "Ġuntil": 3210,
      "æļĸ": 3211,
      "ä¸ģ": 3212,
      "æ»¡è¶³": 3213,
      "Ġreleased": 3214,
      "åĸľæ¬¢": 3215,
      "åĪ¸": 3216,
      "è´¡": 3217,
      "èµĦæł¼": 3218,
      "èĢĥèĻĳ": 3219,
      "éĲ": 3220,
      "Ġestabl": 3221,
      "æ²ī": 3222,
      "ax": 3223,
      "æı¡": 3224,
      "by": 3225,
      "ãĢĭãĢģãĢĬ": 3226,
      "ç¼ĵ": 3227,
      "åı«": 3228,
      "çĲĨè®º": 3229,
      "çģ¯": 3230,
      "ty": 3231,
      "90": 3232,
      "çħ¤": 3233,
      "å·¦åı³": 3234,
      "æĦıè§ģ": 3235,
      "stem": 3236,
      "Ch": 3237,
      "ĠTr": 3238,
      "Ġmusic": 3239,
      "åħ³éĶ®": 3240,
      "Ġboth": 3241,
      "èĦĤ": 3242,
      "ç¨ĭåº¦": 3243,
      "ments": 3244,
      "ç¹ģ": 3245,
      "elf": 3246,
      "åĲĪåĲĮ": 3247,
      "ä¸¹": 3248,
      "ä¸įè¦ģ": 3249,
      "Ġoper": 3250,
      "uss": 3251,
      "æ®Ĭ": 3252,
      "ĠCan": 3253,
      "éŁ©": 3254,
      "ç¬¦åĲĪ": 3255,
      "èİ±": 3256,
      "ĠQ": 3257,
      "è¿Ĳè¡Į": 3258,
      "èĭ±åĽ½": 3259,
      "æ¶Ĥ": 3260,
      "amed": 3261,
      "å¹´ä»£": 3262,
      "æĮĩåĩº": 3263,
      "ç¿»": 3264,
      "Ġmany": 3265,
      "è¶ĬæĿ¥": 3266,
      "æķ´ä¸ª": 3267,
      "Ġmain": 3268,
      "æ²Ł": 3269,
      "æı´": 3270,
      "è·¨": 3271,
      "ĠFran": 3272,
      "è¶ĬæĿ¥è¶Ĭ": 3273,
      "ĠMay": 3274,
      "ĠJohn": 3275,
      "çī¹çĤ¹": 3276,
      "æľºä¼ļ": 3277,
      "åŁĥ": 3278,
      "ather": 3279,
      "Ġown": 3280,
      "Ġcap": 3281,
      "å®½": 3282,
      "ä¾µ": 3283,
      "Ġsever": 3284,
      "æĿ¯": 3285,
      "Ġgu": 3286,
      "Ġrece": 3287,
      "çļĦå·¥ä½ľ": 3288,
      "ä¸įå¾Ĺ": 3289,
      "ä»Ĭå¤©": 3290,
      "åıĳå±ķçļĦ": 3291,
      "åıĳæĮ¥": 3292,
      "è¡ĮåĬ¨": 3293,
      "åĭĩ": 3294,
      "æĳ©": 3295,
      "åħ¬å¼Ģ": 3296,
      "Ġarea": 3297,
      "tal": 3298,
      "ks": 3299,
      "è¿·": 3300,
      "è£ģ": 3301,
      "èļ": 3302,
      "èĺŃ": 3303,
      "æĻ®éĢļ": 3304,
      "æŃ£å¸¸": 3305,
      "Ġplayed": 3306,
      "æ¼«": 3307,
      "éĢŁåº¦": 3308,
      "uro": 3309,
      "éľĩ": 3310,
      "çµĲ": 3311,
      "Ġ&": 3312,
      "çĺ": 3313,
      "ç§Ł": 3314,
      "Ġ15": 3315,
      "åĢĴ": 3316,
      "æĶ¹åıĺ": 3317,
      "arri": 3318,
      "æĺİæĺ¾": 3319,
      "ĠAn": 3320,
      "å¹³æĸ¹": 3321,
      "Ġno": 3322,
      "ä¿ĿéĻ©": 3323,
      "å®ĭ": 3324,
      "Ġ;": 3325,
      "Ġgroup": 3326,
      "éĥ½æľī": 3327,
      "ç©ºæ°Ķ": 3328,
      "çĬ¶æĢģ": 3329,
      "Ġdr": 3330,
      "åħ¬è·¯": 3331,
      "She": 3332,
      "æī¬": 3333,
      "åĿı": 3334,
      "è¯Ńè¨Ģ": 3335,
      "ä¸¾è¡Į": 3336,
      "ea": 3337,
      "åģı": 3338,
      "ç®Ģåįķ": 3339,
      "èµĦäº§": 3340,
      "ĠJan": 3341,
      "çĥŁ": 3342,
      "èĥ¡": 3343,
      "å®ĮåĸĦ": 3344,
      "åªĴä½ĵ": 3345,
      "my": 3346,
      "Ġcre": 3347,
      "å®ŀè·µ": 3348,
      "Ġdevelop": 3349,
      "ä½įç½®": 3350,
      "æ¸©åº¦": 3351,
      "ç±į": 3352,
      "åħ·ä½ĵ": 3353,
      "æ³ķéĻ¢": 3354,
      "çĶŁçļĦ": 3355,
      "çĽ®çļĦ": 3356,
      "ism": 3357,
      "ird": 3358,
      "åģļå¥½": 3359,
      "åĳ¢": 3360,
      "2000": 3361,
      "els": 3362,
      "çº·": 3363,
      "èĻķ": 3364,
      "Ġ16": 3365,
      "èİ«": 3366,
      "è¯¯": 3367,
      "é«ĺçļĦ": 3368,
      "èªª": 3369,
      "St": 3370,
      "è¡¡": 3371,
      "rict": 3372,
      "è·ĳ": 3373,
      "æĤī": 3374,
      "çļĦäºĭ": 3375,
      "æµª": 3376,
      "icip": 3377,
      "As": 3378,
      "éĩįå¤§": 3379,
      "2013": 3380,
      "Ġfin": 3381,
      "èĤ¡ä»½": 3382,
      "ues": 3383,
      "Ġmed": 3384,
      "ç¾©": 3385,
      "åĩĿ": 3386,
      "çĲĨå¿µ": 3387,
      "æµĻ": 3388,
      "æ¹¿": 3389,
      "åıĥ": 3390,
      "è´¥": 3391,
      "ives": 3392,
      "å¼ĢæĶ¾": 3393,
      "äºĴèģĶç½ĳ": 3394,
      "èī¯å¥½çļĦ": 3395,
      "èĤ¥": 3396,
      "å°Ĭ": 3397,
      "åħ¶å®ŀ": 3398,
      "åĨľä¸ļ": 3399,
      "Ġname": 3400,
      "ç¾İåħĥ": 3401,
      "è§Ī": 3402,
      "Ġmet": 3403,
      "èĢħçļĦ": 3404,
      "åĨ¬": 3405,
      "ĠComm": 3406,
      "æĲŃ": 3407,
      "è¿Ĳè¾ĵ": 3408,
      "æ³¨åĨĮ": 3409,
      "ode": 3410,
      "ãĢĭï¼Ī": 3411,
      "å¾Ħ": 3412,
      "æĦıä¹ī": 3413,
      "åĦ¿ç«¥": 3414,
      "Ġfeat": 3415,
      "\",": 3416,
      "è¿ĲèĲ¥": 3417,
      "Ġopen": 3418,
      "ross": 3419,
      "ium": 3420,
      "æĽ¸": 3421,
      "ains": 3422,
      "Ġmay": 3423,
      "Ġsm": 3424,
      "æģ¶": 3425,
      "ä»İäºĭ": 3426,
      "2012": 3427,
      "Ġrep": 3428,
      "Ġbr": 3429,
      "ting": 3430,
      "è§ĦèĮĥ": 3431,
      "åĤ³": 3432,
      "ĠCon": 3433,
      "ternational": 3434,
      "âĢĿãĢģâĢľ": 3435,
      "å¯º": 3436,
      "åĩºçīĪ": 3437,
      "ĠPl": 3438,
      "æ¤įçī©": 3439,
      "èĪī": 3440,
      "å¹¶ä¸į": 3441,
      "duced": 3442,
      "ĠNational": 3443,
      "ampions": 3444,
      "ets": 3445,
      "led": 3446,
      "ai": 3447,
      "ä¹Ļ": 3448,
      "åŃĶ": 3449,
      "è´Ŀ": 3450,
      "å±±ä¸ľ": 3451,
      "é£Łçī©": 3452,
      "åĶ¯": 3453,
      "éģĵè·¯": 3454,
      "Ġformer": 3455,
      "çıł": 3456,
      "ä»ģ": 3457,
      "åĴ¨": 3458,
      "åįģåĪĨ": 3459,
      "Ġ:": 3460,
      "imes": 3461,
      "ä¸įå°ĳ": 3462,
      "ural": 3463,
      "ĠSouth": 3464,
      "å°¤åħ¶": 3465,
      "Ġmin": 3466,
      "sp": 3467,
      "ugust": 3468,
      "Ġoffic": 3469,
      "stit": 3470,
      "çį²": 3471,
      "è¡¨éĿ¢": 3472,
      "ĠAustral": 3473,
      "æĭŁ": 3474,
      "çĥ§": 3475,
      "æķı": 3476,
      "æ¡£": 3477,
      "æ´ŀ": 3478,
      "æĸ°éĹ»": 3479,
      "Ġem": 3480,
      "æĦıè¯Ĩ": 3481,
      "ef": 3482,
      "åį·": 3483,
      "ved": 3484,
      "æĬĵ": 3485,
      "éĢļçŁ¥": 3486,
      "ox": 3487,
      "ĠNov": 3488,
      "æĢİ": 3489,
      "å·ŀå¸Ĥ": 3490,
      "çļĦéĹ®é¢ĺ": 3491,
      "ĠPr": 3492,
      "æ¯Ķå¦Ĥ": 3493,
      "äººåı£": 3494,
      "èħĲ": 3495,
      "å°±ä¼ļ": 3496,
      "å¼±": 3497,
      "èĲ½å®ŀ": 3498,
      "å¢Ļ": 3499,
      "eng": 3500,
      "Ġlong": 3501,
      "åĩĨå¤ĩ": 3502,
      "åľĪ": 3503,
      "é¢ľ": 3504,
      "æĭĵ": 3505,
      "èģĶç³»": 3506,
      "æīĵéĢł": 3507,
      "ç§°ä¸º": 3508,
      "çĽĳçĿ£": 3509,
      "åı¦ä¸Ģ": 3510,
      "æ½®": 3511,
      "36": 3512,
      "å®īæİĴ": 3513,
      "ĠCounty": 3514,
      "çľŁæŃ£": 3515,
      "èĵĿ": 3516,
      "åĲįçļĦ": 3517,
      "èĪªç©º": 3518,
      "ulation": 3519,
      "åħ¨éĥ¨": 3520,
      "eptember": 3521,
      "åĲİçļĦ": 3522,
      "inc": 3523,
      "éĿĴå¹´": 3524,
      "æľĢå¤§": 3525,
      "åıįåºĶ": 3526,
      "ually": 3527,
      "Ġdif": 3528,
      "Ġsuc": 3529,
      "æµĵ": 3530,
      "Ġhist": 3531,
      "éĺµ": 3532,
      "åĪ¶å®ļ": 3533,
      "500": 3534,
      "ç¬ĳ": 3535,
      "oard": 3536,
      "åıªæĺ¯": 3537,
      "åĪĬ": 3538,
      "å°İ": 3539,
      "ke": 3540,
      "Ġdesign": 3541,
      "ç£¨": 3542,
      "åľĺ": 3543,
      "Ġband": 3544,
      "éĴĪå¯¹": 3545,
      "åĴ¨è¯¢": 3546,
      "æ¨Ĥ": 3547,
      "å¯¿": 3548,
      "ants": 3549,
      "æ³¥": 3550,
      "æŃ¤æ¬¡": 3551,
      "2010": 3552,
      "çļ®èĤ¤": 3553,
      "æ°§åĮĸ": 3554,
      "ç¨ĭåºı": 3555,
      "gram": 3556,
      "çļĦæĥħåĨµ": 3557,
      "Ġbuild": 3558,
      "çī©æµģ": 3559,
      "ause": 3560,
      "ä¼į": 3561,
      "å®īè£ħ": 3562,
      "æ·±åħ¥": 3563,
      "Ġseveral": 3564,
      "æĽ¿": 3565,
      "Ġrun": 3566,
      "éĽĨä¸Ń": 3567,
      "æĺĮ": 3568,
      "å¤ļçļĦ": 3569,
      "ä»ĸä»¬çļĦ": 3570,
      "éļĲ": 3571,
      "ç½ļ": 3572,
      "å¼¹": 3573,
      "æķ°åŃĹ": 3574,
      "ä¸¾åĬŀ": 3575,
      "å®£ä¼ł": 3576,
      "ç¤¾åĮº": 3577,
      "å¢ŀå¼º": 3578,
      "uth": 3579,
      "Ġext": 3580,
      "èĩªèº«": 3581,
      "ä¸ĭçļĦ": 3582,
      "åĮ»åŃ¦": 3583,
      "æĪĲåĳĺ": 3584,
      "æľīäºĽ": 3585,
      "è¿Ľè¡ĮäºĨ": 3586,
      "ç¬¬åįģ": 3587,
      "æĶ¹åĸĦ": 3588,
      "åľ³": 3589,
      "é»¨": 3590,
      "å¥ĭ": 3591,
      "åĬĽçļĦ": 3592,
      "è½¯ä»¶": 3593,
      "Ġep": 3594,
      "æĬĢèĥ½": 3595,
      "for": 3596,
      "æķĪçİĩ": 3597,
      "ĠJu": 3598,
      "ized": 3599,
      "Ġmod": 3600,
      "å¤§åŀĭ": 3601,
      "Ġnear": 3602,
      "\".": 3603,
      "ç¾¤ä¼Ĺ": 3604,
      "éĿ¢å¯¹": 3605,
      "åľŁåľ°": 3606,
      "ĠDec": 3607,
      "èĻļ": 3608,
      "ĠNorth": 3609,
      "äºĮåįģ": 3610,
      "±ä¹Ĳ": 3611,
      "ott": 3612,
      "ç§ĳçłĶ": 3613,
      "Ġdep": 3614,
      "Ġ2006": 3615,
      "osed": 3616,
      "éģį": 3617,
      "Ġgener": 3618,
      "ä½ĵéªĮ": 3619,
      "çĦ¦": 3620,
      "ä¼Ł": 3621,
      "éĩĳå±ŀ": 3622,
      "å±ħæ°ĳ": 3623,
      "æ½ľ": 3624,
      "æĩī": 3625,
      "æľ±": 3626,
      "è¦Ĩ": 3627,
      "Ġreturn": 3628,
      "Ġcalled": 3629,
      "æ³ī": 3630,
      "ove": 3631,
      "èĦļ": 3632,
      "é¦ĸåħĪ": 3633,
      "æľĢä½³": 3634,
      "Ġstart": 3635,
      "çĶ¢": 3636,
      "arm": 3637,
      "èĤ¯": 3638,
      "æĿ°": 3639,
      "lish": 3640,
      "ajor": 3641,
      "Ġair": 3642,
      "å¤§åĪ©": 3643,
      "å²©": 3644,
      "ĠSeptember": 3645,
      "å¹¼": 3646,
      "ister": 3647,
      "é«ĺéĢŁ": 3648,
      "ful": 3649,
      "èµ¢": 3650,
      "rist": 3651,
      "ãĢįï¼Į": 3652,
      "æĺİç¡®": 3653,
      "èĳ£äºĭ": 3654,
      "ĠAugust": 3655,
      "åĨħçļĦ": 3656,
      "åĢº": 3657,
      "å¤§å¤ļ": 3658,
      "é¡¿": 3659,
      "ctober": 3660,
      "æĵĬ": 3661,
      "æĪĲæŀľ": 3662,
      "æ·±åľ³": 3663,
      "ution": 3664,
      "çĲĨè§£": 3665,
      "åįĸ": 3666,
      "çĽĲ": 3667,
      "aking": 3668,
      "å¸«": 3669,
      "åĬ¨çī©": 3670,
      "æ´ª": 3671,
      "çī¹æ®Ĭ": 3672,
      "çļĦå°ı": 3673,
      "æķ´ä½ĵ": 3674,
      "ĠBritish": 3675,
      "ä¸ªæľĪ": 3676,
      "eal": 3677,
      "2011": 3678,
      "pril": 3679,
      "æĸĩä»¶": 3680,
      "eed": 3681,
      "ior": 3682,
      "Ġmat": 3683,
      "Ġann": 3684,
      "åħ±åĴĮåĽ½": 3685,
      "èĢ³": 3686,
      "ĠGerman": 3687,
      "ised": 3688,
      "Ġcontin": 3689,
      "Ġwon": 3690,
      "çļĦå½±åĵį": 3691,
      "ĠAd": 3692,
      "è¿ĩåİ»": 3693,
      "lege": 3694,
      "ital": 3695,
      "æī¶": 3696,
      "æĪĲéķ¿": 3697,
      "ĠPh": 3698,
      "ä¹Łä¸į": 3699,
      "ï¼Īï¼ī": 3700,
      "ians": 3701,
      "ä¸Ńåľĭ": 3702,
      "ĠLeague": 3703,
      "æĮ¯": 3704,
      "è§Ĵèī²": 3705,
      "ä¸ºä¸»": 3706,
      "Ġstation": 3707,
      "éħĴåºĹ": 3708,
      "å¾ª": 3709,
      "çİ»": 3710,
      "ç¬¬åĽĽ": 3711,
      "èĤº": 3712,
      "ven": 3713,
      "éĤ¦": 3714,
      "Ġearly": 3715,
      "éĢĤåĲĪ": 3716,
      "yl": 3717,
      "è¿Ķ": 3718,
      "ç¢³": 3719,
      "ured": 3720,
      "æĬķåħ¥": 3721,
      "rop": 3722,
      "çĶĺ": 3723,
      "èį·": 3724,
      "çĲĥéĺŁ": 3725,
      "Ġfollowing": 3726,
      "å°¾": 3727,
      "è¶ĭ": 3728,
      "åł±": 3729,
      "ĠOr": 3730,
      "å¾Ĳ": 3731,
      "æĸĩç«ł": 3732,
      "åĬŀæ³ķ": 3733,
      "åĢį": 3734,
      "å±¬": 3735,
      "æģ¢": 3736,
      "ä¹Į": 3737,
      "arn": 3738,
      "è´¡çĮ®": 3739,
      "ane": 3740,
      "çº¯": 3741,
      "å§ĵ": 3742,
      "å®ĥçļĦ": 3743,
      "è³ĩ": 3744,
      "äººå·¥": 3745,
      "çĴĥ": 3746,
      "Ġob": 3747,
      "ĠCity": 3748,
      "åĲĪçĲĨ": 3749,
      "æĬµ": 3750,
      "æķ°éĩı": 3751,
      "ä¾ĽåºĶ": 3752,
      "ä¸¥æł¼": 3753,
      "ï¼ĮãĢĬ": 3754,
      "æīĭæľº": 3755,
      "ä¸ĭéĻį": 3756,
      "åĲ´": 3757,
      "æ¥ļ": 3758,
      "ces": 3759,
      "Ġsame": 3760,
      "è´¯": 3761,
      "èµĦæĸĻ": 3762,
      "Ġclub": 3763,
      "è¿ħ": 3764,
      "ange": 3765,
      "ĠCent": 3766,
      "å·§": 3767,
      "æĹĭ": 3768,
      "å¤ļä¸ª": 3769,
      "å¢¨": 3770,
      "çĹħæ¯Ĵ": 3771,
      "éĩĩåıĸ": 3772,
      "éłĺ": 3773,
      "èĪĴ": 3774,
      "èĢĹ": 3775,
      "åĪĨä¸º": 3776,
      "å¦ĩ": 3777,
      "å¹¿ä¸ľ": 3778,
      "éłŃ": 3779,
      "Ġtown": 3780,
      "éĩįæĸ°": 3781,
      "ilt": 3782,
      "ris": 3783,
      "ograp": 3784,
      "struct": 3785,
      "eter": 3786,
      "ç¾İåľĭ": 3787,
      "æĭħä»»": 3788,
      "é¾Ħ": 3789,
      "Ġsystem": 3790,
      "Ġvar": 3791,
      "é©¾": 3792,
      "ĠOctober": 3793,
      "vent": 3794,
      "çļĦä¸Ģä¸ª": 3795,
      "æĬĺ": 3796,
      "ä¸Ĭå¸Ĥ": 3797,
      "æķ¬": 3798,
      "37": 3799,
      "åŃ¦ç§ĳ": 3800,
      "é»ŀ": 3801,
      "ĠMarch": 3802,
      "ç»ĵæĿŁ": 3803,
      "æĪ´": 3804,
      "åĪ¥": 3805,
      "ially": 3806,
      "æµĻæ±Ł": 3807,
      "æ²Ĵ": 3808,
      "ĠApril": 3809,
      "å¦ĤæŃ¤": 3810,
      "Ġalong": 3811,
      "åŃĻ": 3812,
      "è¿ŀç»Ń": 3813,
      "At": 3814,
      "éĹŃ": 3815,
      "Ġdisc": 3816,
      "åĿ¡": 3817,
      "åĲ¨": 3818,
      "åĪĽä¸ļ": 3819,
      "å»£": 3820,
      "2008": 3821,
      "éº»": 3822,
      "å°±ä¸ļ": 3823,
      "åł¡": 3824,
      "éī": 3825,
      "å¤ªéĺ³": 3826,
      "éĺħ": 3827,
      "embers": 3828,
      "ued": 3829,
      "åĽĽå·Ŀ": 3830,
      "ä¹ĭéĹ´çļĦ": 3831,
      "æĸĩæĺİ": 3832,
      "æº¶": 3833,
      "çĹĩçĬ¶": 3834,
      "Ġgovern": 3835,
      "æĦŁæŁĵ": 3836,
      "åĩºåı£": 3837,
      "ĠGr": 3838,
      "å¸¶": 3839,
      "æ³¡": 3840,
      "æ¬§æ´²": 3841,
      "éĵĿ": 3842,
      "è®Ĭ": 3843,
      "ided": 3844,
      "çĻĮ": 3845,
      "æľĢå¤§çļĦ": 3846,
      "ç»ķ": 3847,
      "èĲ¥åħ»": 3848,
      "åīįå¾Ģ": 3849,
      "Ġcare": 3850,
      "ĠUS": 3851,
      "ient": 3852,
      "born": 3853,
      "ebr": 3854,
      "ony": 3855,
      "aining": 3856,
      "ä¸Ģå¹´": 3857,
      "è±ª": 3858,
      "éĲµ": 3859,
      "éĤ®": 3860,
      "ç»´æĬ¤": 3861,
      "å¥¶": 3862,
      "æ¯ıä¸ª": 3863,
      "é¬": 3864,
      "ple": 3865,
      "iet": 3866,
      "å¾·åĽ½": 3867,
      "ible": 3868,
      "ission": 3869,
      "äººå£«": 3870,
      "åįļå£«": 3871,
      "isc": 3872,
      "å¾Ĵ": 3873,
      "ç»Łè®¡": 3874,
      "åĨįæ¬¡": 3875,
      "fess": 3876,
      "38": 3877,
      "ĠNovember": 3878,
      "ç¼ĺ": 3879,
      "ret": 3880,
      "åĽ°éļ¾": 3881,
      "ç»ıçĲĨ": 3882,
      "ead": 3883,
      "å¥ī": 3884,
      "por": 3885,
      "æĬ¥éģĵ": 3886,
      "Ġappear": 3887,
      "Ġcount": 3888,
      "ç²Ĵ": 3889,
      "åĩ¡": 3890,
      "èı²": 3891,
      "Ġbegan": 3892,
      "åĵģè´¨": 3893,
      ")ï¼Į": 3894,
      "åħ¬åı¸çļĦ": 3895,
      "è´´": 3896,
      "Ġdid": 3897,
      "å¹³åĿĩ": 3898,
      "ham": 3899,
      "æį·": 3900,
      "éĥĳ": 3901,
      "èªŀ": 3902,
      "é¾į": 3903,
      "éŃĶ": 3904,
      "é¡ŀ": 3905,
      "ĠJanuary": 3906,
      "ä¸Ģä¸ĭ": 3907,
      "äººçī©": 3908,
      "They": 3909,
      "å±ķç¤º": 3910,
      "è¾ħ": 3911,
      "äºķ": 3912,
      "ended": 3913,
      "eor": 3914,
      "ĠKing": 3915,
      "ç»¿èī²": 3916,
      "åĪĨåŃĲ": 3917,
      "é»ĺ": 3918,
      "æ¯«": 3919,
      "èī¾": 3920,
      "æģĴ": 3921,
      "apan": 3922,
      "Ġpass": 3923,
      "é£İæł¼": 3924,
      "æĪĲçĤº": 3925,
      "æĮĳæĪĺ": 3926,
      "çİ»çĴĥ": 3927,
      "èķ": 3928,
      "fl": 3929,
      "ä¹±": 3930,
      "å¤ļç§į": 3931,
      "ç»ıå¸¸": 3932,
      "ĠJune": 3933,
      "é¢¨": 3934,
      "ç»Łä¸Ģ": 3935,
      "æĻºæħ§": 3936,
      "è±Ĩ": 3937,
      "å½»": 3938,
      "é¦ĸæ¬¡": 3939,
      "è§īå¾Ĺ": 3940,
      "éķľ": 3941,
      "oman": 3942,
      "Ġyou": 3943,
      "éĢĲæ¸Ĳ": 3944,
      "ampionship": 3945,
      "ĠJuly": 3946,
      "è®Ńç»ĥ": 3947,
      "ink": 3948,
      "å³¶": 3949,
      "Ġbel": 3950,
      "åĲĮåŃ¦": 3951,
      "æĬ¥åĲį": 3952,
      "ĠBro": 3953,
      "æĭľ": 3954,
      "oint": 3955,
      "å½¹": 3956,
      "levision": 3957,
      "ĠHigh": 3958,
      "2009": 3959,
      "å®£å¸ĥ": 3960,
      "Ġfamily": 3961,
      "è¶³çĲĥ": 3962,
      "Ġpublic": 3963,
      "çĶ¨çļĦ": 3964,
      "rent": 3965,
      "å¼µ": 3966,
      "éĢ£": 3967,
      "Ġbook": 3968,
      "åıªè¦ģ": 3969,
      "ĠCanad": 3970,
      "ĠGu": 3971,
      "ãĢĢ": 3972,
      "æ³½": 3973,
      "åıĮæĸ¹": 3974,
      "åĲĦç±»": 3975,
      "è®¤è¯Ĩ": 3976,
      "æ¯ıå¹´": 3977,
      "wards": 3978,
      "åħļåĳĺ": 3979,
      "æľºåĪ¶": 3980,
      "èĲ¬": 3981,
      "çŀ": 3982,
      "ĠII": 3983,
      "ĠDecember": 3984,
      "è¿Ļæł·çļĦ": 3985,
      "Ġhead": 3986,
      "ç´ļ": 3987,
      "Ġstate": 3988,
      "ner": 3989,
      "èĢ¶": 3990,
      "æľ¬æ¬¡": 3991,
      "Ġrev": 3992,
      "ĠEd": 3993,
      "Ġcomple": 3994,
      "æĿ¥çľĭ": 3995,
      "åħ¬åĽŃ": 3996,
      "éĤĢ": 3997,
      "é©¶": 3998,
      "ology": 3999,
      "éĥ½ä¼ļ": 4000,
      "çĽ¸å¯¹": 4001,
      "æľºåĻ¨": 4002,
      "ä¸»å¸Ń": 4003,
      "è·Ŀç¦»": 4004,
      "Ġtit": 4005,
      "aced": 4006,
      "Ġbas": 4007,
      "omen": 4008,
      "åı°çģ£": 4009,
      "æĦŁè§ī": 4010,
      "æ®ĸ": 4011,
      "tle": 4012,
      "Ġthese": 4013,
      "34": 4014,
      "å¹²éĥ¨": 4015,
      "æĥĬ": 4016,
      "Ġdesc": 4017,
      "Ġpolit": 4018,
      ",@": 4019,
      "åĲ§": 4020,
      "å¤§ä¼ļ": 4021,
      "Ġ@,@": 4022,
      "Ġsmall": 4023,
      "è¿¹": 4024,
      "ĠCal": 4025,
      "è¯¸": 4026,
      "æĥł": 4027,
      "è½¨": 4028,
      "aving": 4029,
      "å·¥ä½ľçļĦ": 4030,
      "çŃīçŃī": 4031,
      "è¬": 4032,
      "Ġwill": 4033,
      "Ġland": 4034,
      "ç§»åĬ¨": 4035,
      "å¼ĥ": 4036,
      "å¦»": 4037,
      "åĬĩ": 4038,
      "æµĭè¯ķ": 4039,
      "éĻ¶": 4040,
      "è½´": 4041,
      "Ġany": 4042,
      "åĲĽ": 4043,
      "ç»ıåİĨ": 4044,
      "åıĬåħ¶": 4045,
      "åħ¬å¸ĥ": 4046,
      "ç«¹": 4047,
      "åľ°çĲĥ": 4048,
      "å¿ĺ": 4049,
      "æ°£": 4050,
      "æĸ¹ä¾¿": 4051,
      "åĭ¤": 4052,
      "åŃ¦æľ¯": 4053,
      "Ġsince": 4054,
      "ility": 4055,
      "ck": 4056,
      "æ¬Ĭ": 4057,
      "å£ģ": 4058,
      "ales": 4059,
      "æ¯ıå¤©": 4060,
      "æ²³åįĹ": 4061,
      "Ġsim": 4062,
      "reen": 4063,
      "Ġprogram": 4064,
      "cept": 4065,
      "é©»": 4066,
      "Ġph": 4067,
      "ä½¿å¾Ĺ": 4068,
      "ä¸ľè¥¿": 4069,
      "æ±Łèĭı": 4070,
      "èĭĹ": 4071,
      "Ġsingle": 4072,
      "Ġprom": 4073,
      "ages": 4074,
      "ä¹Łä¼ļ": 4075,
      "çĽ¸ä¿¡": 4076,
      "Ġorgan": 4077,
      "Ġclass": 4078,
      "åİŁåĪĻ": 4079,
      "éī´": 4080,
      "39": 4081,
      "Ġcur": 4082,
      "Ġresp": 4083,
      "Ġeff": 4084,
      "åĲĦåľ°": 4085,
      "è¯¦": 4086,
      "åĲ¸å¼ķ": 4087,
      "æ¶īåıĬ": 4088,
      "Ġwe": 4089,
      "æĹłè®º": 4090,
      "ãĥ": 4091,
      "è¿«": 4092,
      "åĸ®": 4093,
      "é¸¡": 4094,
      "Ġsuccess": 4095,
      "ä¼Ļ": 4096,
      "è¡¨è¾¾": 4097,
      "å¡«": 4098,
      "è´¸æĺĵ": 4099,
      "Ġvers": 4100,
      "Ġcity": 4101,
      "èµŀ": 4102,
      "çıį": 4103,
      "His": 4104,
      "æ±º": 4105,
      "è´·": 4106,
      "æİī": 4107,
      "ä¼ĺè´¨": 4108,
      "è¿ģ": 4109,
      "å±ı": 4110,
      "æ±¡æ°´": 4111,
      "An": 4112,
      "éĬ": 4113,
      "Ġepis": 4114,
      "è½ī": 4115,
      "ĠAss": 4116,
      "ç»ª": 4117,
      "ling": 4118,
      "èį¯çī©": 4119,
      "èĴĤ": 4120,
      "ĠEuro": 4121,
      "å¥ı": 4122,
      "æ·¡": 4123,
      "æĹ¥å¸¸": 4124,
      "ped": 4125,
      "èº«ä»½": 4126,
      "èĢĮæĺ¯": 4127,
      "ç´Ģ": 4128,
      "2006": 4129,
      "ality": 4130,
      "au": 4131,
      "min": 4132,
      "å¹´è½»": 4133,
      "ĠMan": 4134,
      "çĭ¬ç«ĭ": 4135,
      "å®¾": 4136,
      "Ġmen": 4137,
      "amb": 4138,
      "ä»įçĦ¶": 4139,
      "æ¶Īæģ¯": 4140,
      "Ġlocated": 4141,
      "ience": 4142,
      "æ·»": 4143,
      "ically": 4144,
      "åħĥç´ł": 4145,
      "éĸĭå§ĭ": 4146,
      "ãĢĭãĢĤ": 4147,
      "éĨĴ": 4148,
      "æĨ": 4149,
      "æĭĶ": 4150,
      "å¤įæĿĤ": 4151,
      "éĽķ": 4152,
      "éĩįåºĨ": 4153,
      "å¥³æĢ§": 4154,
      "æĸ¹éĿ¢çļĦ": 4155,
      "éĿ©åĳ½": 4156,
      "é«ĺæł¡": 4157,
      "å¼Ĺ": 4158,
      "iving": 4159,
      "Ġeach": 4160,
      "éº¦": 4161,
      "ster": 4162,
      "åı¯èĥ½ä¼ļ": 4163,
      "ä»ĸåľ¨": 4164,
      "é«ĺåº¦": 4165,
      "32": 4166,
      "ored": 4167,
      "å¼·": 4168,
      "å·¡": 4169,
      "è¾ĳ": 4170,
      "æĹ¨": 4171,
      "Ġnamed": 4172,
      "though": 4173,
      "éĵľ": 4174,
      "åĨħéĥ¨": 4175,
      "Ġ12": 4176,
      "åĬ¨åĬĽ": 4177,
      "Ġ14": 4178,
      "å®¿": 4179,
      "æģ¢å¤į": 4180,
      "åħĪçĶŁ": 4181,
      "è¯ģæĺİ": 4182,
      "æºª": 4183,
      "è¯ĳ": 4184,
      "ĠState": 4185,
      "æĢ§åĴĮ": 4186,
      "éĤ£äºĽ": 4187,
      "ä¹³": 4188,
      "Ġocc": 4189,
      "ebruary": 4190,
      "Ġ2007": 4191,
      "ä¿Ĺ": 4192,
      "augh": 4193,
      "ï¼į": 4194,
      "æ¦ľ": 4195,
      "Ġpos": 4196,
      "Ġchild": 4197,
      "ection": 4198,
      "ĠCar": 4199,
      "ese": 4200,
      "ç§¦": 4201,
      "the": 4202,
      "æİĴåĲį": 4203,
      "çļĦä¸»è¦ģ": 4204,
      "åĪĽä½ľ": 4205,
      "åįıè®®": 4206,
      "éĺ´": 4207,
      "2007": 4208,
      "åĨľæĿĳ": 4209,
      "è«ĸ": 4210,
      "äººæ°ĳåħ±åĴĮåĽ½": 4211,
      "æĸĩåŃ¦": 4212,
      "åįĹäº¬": 4213,
      "åħ·å¤ĩ": 4214,
      "idge": 4215,
      "33": 4216,
      "å¿ł": 4217,
      "aster": 4218,
      "æīİ": 4219,
      "çĤ¼": 4220,
      "Ġproduct": 4221,
      "å¥¹çļĦ": 4222,
      "åĵ²": 4223,
      "ä¸īä¸ª": 4224,
      "æĻ¶": 4225,
      "èµĦæľ¬": 4226,
      "åŀĭçļĦ": 4227,
      "ç½Ĺæĸ¯": 4228,
      "Ġsupport": 4229,
      "è¡ĮçļĦ": 4230,
      "çĿ¡": 4231,
      "éĩįè§Ĩ": 4232,
      "æ¬¢è¿İ": 4233,
      "æļĹ": 4234,
      "èĥĥ": 4235,
      "å°º": 4236,
      "è¾Ľ": 4237,
      "ä¸įåĪ°": 4238,
      "æĿľ": 4239,
      "è§Ĥä¼Ĺ": 4240,
      "èģĮå·¥": 4241,
      "å²Ĺä½į": 4242,
      "èµı": 4243,
      "å·¥åħ·": 4244,
      "American": 4245,
      "æĺ¯çĶ±": 4246,
      "ç°": 4247,
      "Ġtook": 4248,
      "ator": 4249,
      "æĥ¯": 4250,
      "side": 4251,
      "æĦŁåĪ°": 4252,
      "è¯ģåĪ¸": 4253,
      "ï½": 4254,
      "æľīçĿĢ": 4255,
      "èµµ": 4256,
      "uck": 4257,
      "çī©çĲĨ": 4258,
      "ç£ģ": 4259,
      "éĢĥ": 4260,
      "è¦ª": 4261,
      "ç´«": 4262,
      "å¹³æĸ¹ç±³": 4263,
      "åį°åº¦": 4264,
      "ung": 4265,
      "æ¶¨": 4266,
      "oad": 4267,
      "Ġpres": 4268,
      "ä¸Ģä½į": 4269,
      "ä¸ĢåĲį": 4270,
      "ç¯Ģ": 4271,
      "çļĦæĸ¹å¼ı": 4272,
      "æŃ£ç¡®": 4273,
      "ä¹Łåı¯ä»¥": 4274,
      "æĬ½": 4275,
      "è½¦è¾Ĩ": 4276,
      "Ġuse": 4277,
      "Ġaround": 4278,
      "ç¶Ń": 4279,
      "æĽ´å¤ļçļĦ": 4280,
      "å¹¿å·ŀ": 4281,
      "ä¸įè¶³": 4282,
      "é¥Ń": 4283,
      "çªĹ": 4284,
      "æĽ´å¥½": 4285,
      "ĠWest": 4286,
      "è£Ĥ": 4287,
      "è§Ĩé¢ĳ": 4288,
      "Ġnorth": 4289,
      "åįģäºĮ": 4290,
      "åĮ»çĶŁ": 4291,
      "ract": 4292,
      "åħĪåĲİ": 4293,
      "ĠAll": 4294,
      "èĤł": 4295,
      "è¯Ħä»·": 4296,
      "Ġpopulation": 4297,
      "è¯´æĺİ": 4298,
      "illion": 4299,
      "45": 4300,
      "éĩıçļĦ": 4301,
      "ival": 4302,
      "å¹¿å¤§": 4303,
      "èģ·": 4304,
      "Ġcommun": 4305,
      "æĺ¯æĮĩ": 4306,
      "Ġhome": 4307,
      "åĳĬè¯ī": 4308,
      "æĪĲäºĨ": 4309,
      "åľĴ": 4310,
      "However": 4311,
      "ilit": 4312,
      "è¿½æ±Ĥ": 4313,
      "å¤§åŃ¸": 4314,
      "è¨ĺ": 4315,
      "sc": 4316,
      "èĳ¡": 4317,
      "æľīæľº": 4318,
      "èĪį": 4319,
      "ĠWill": 4320,
      "èĦī": 4321,
      "There": 4322,
      "Ġ@.": 4323,
      "æµ®": 4324,
      "af": 4325,
      "ats": 4326,
      "çĽ¸æ¯Ķ": 4327,
      "çĽĳç®¡": 4328,
      "âĢĺ": 4329,
      "éĤĦ": 4330,
      "æ¢Ŀ": 4331,
      "æļĤ": 4332,
      "è´Łè´£äºº": 4333,
      "éĢĤåºĶ": 4334,
      "ĠEnglish": 4335,
      "æĮĤ": 4336,
      "çİ°è±¡": 4337,
      "eth": 4338,
      "èĪ°": 4339,
      "ä¸Ńåįİäººæ°ĳåħ±åĴĮåĽ½": 4340,
      "èĽĭçĻ½": 4341,
      "ford": 4342,
      "to": 4343,
      "é³": 4344,
      "ĠSw": 4345,
      "å®ļçļĦ": 4346,
      "çŃ¹": 4347,
      "ä¹ı": 4348,
      "ices": 4349,
      "è£½": 4350,
      "éĢĴ": 4351,
      "ille": 4352,
      "Ġline": 4353,
      "ä¾Ŀæ³ķ": 4354,
      "è®¤çľŁ": 4355,
      "ĠJapan": 4356,
      "Ġ2008": 4357,
      "Ġcould": 4358,
      "ĠFebruary": 4359,
      "æ¯Ķä¾ĭ": 4360,
      "ä¸īå¹´": 4361,
      "gest": 4362,
      "çļĦè¯Ŀ": 4363,
      "iness": 4364,
      "Ġeng": 4365,
      "èĩªæ²»": 4366,
      "Ġgames": 4367,
      "Ġimp": 4368,
      "Ġbased": 4369,
      "æĢķ": 4370,
      "acter": 4371,
      "æŁ±": 4372,
      "ĠFl": 4373,
      "ä¸ĭåįĪ": 4374,
      "æİ¥è§¦": 4375,
      "Ġplace": 4376,
      "rench": 4377,
      "åĮĸå·¥": 4378,
      "åħļå§Ķ": 4379,
      "ãĢįãĢĤ": 4380,
      "ĠCo": 4381,
      "Ġmajor": 4382,
      "åķĨåĵģ": 4383,
      "éĻ·": 4384,
      "éģµ": 4385,
      "å¤Ħäºİ": 4386,
      "âĢ¦": 4387,
      "æ¹ĸåįĹ": 4388,
      "æİ¢ç´¢": 4389,
      "éĻĲåĪ¶": 4390,
      "Ġlast": 4391,
      "è¡ĵ": 4392,
      "Ġreceived": 4393,
      "Ġdiffer": 4394,
      "è¹": 4395,
      "åĨłåĨĽ": 4396,
      "åĬłå¿«": 4397,
      "è®¡ç®Ĺæľº": 4398,
      "ords": 4399,
      "ä¼ģä¸ļçļĦ": 4400,
      "æĹ¦": 4401,
      "çĶµè¯Ŀ": 4402,
      "Ġ/": 4403,
      "ç»ĺ": 4404,
      "æĻĭ": 4405,
      "éĿ¢çļĦ": 4406,
      "çº¤": 4407,
      "ç¡ķ": 4408,
      "Ġsaid": 4409,
      "åĽ½åĬ¡": 4410,
      "åĮĹéĥ¨": 4411,
      "åĩºæĿ¥": 4412,
      "æĵļ": 4413,
      "Ġmanag": 4414,
      "å®ı": 4415,
      "æľºåľº": 4416,
      "çĥ¯": 4417,
      "çĩŁ": 4418,
      "å¯Ĵ": 4419,
      "çķ«": 4420,
      "è¦ĭ": 4421,
      "åıĳè¡¨": 4422,
      "ä¼ı": 4423,
      "éĻĦè¿ĳ": 4424,
      "åĿĽ": 4425,
      "åľ°ä½į": 4426,
      "åĶ¯ä¸Ģ": 4427,
      "row": 4428,
      "Ġsix": 4429,
      "èĩªæĪĳ": 4430,
      "åģ¿": 4431,
      "çĪ¶æ¯į": 4432,
      "ä¹ĭå¤ĸ": 4433,
      "è´Ńä¹°": 4434,
      "ç¥Ŀ": 4435,
      "ublic": 4436,
      "Ġnow": 4437,
      "åĲĮæł·": 4438,
      "åįļçī©": 4439,
      "äººåľ¨": 4440,
      "Ġship": 4441,
      "Ġcompany": 4442,
      "300": 4443,
      "Ġleft": 4444,
      "ivision": 4445,
      "Ġmembers": 4446,
      "å°ĳå¹´": 4447,
      "åľĸ": 4448,
      "ĠPark": 4449,
      "çļĦæĹ¶éĹ´": 4450,
      "æĸĳ": 4451,
      "æİĮæı¡": 4452,
      "æ²ĥ": 4453,
      "æī¹åĩĨ": 4454,
      "Ġestablished": 4455,
      "aff": 4456,
      "æģĲ": 4457,
      "åİ»å¹´": 4458,
      "çļĦä¸»": 4459,
      "ech": 4460,
      "çģŃ": 4461,
      "åĩŃ": 4462,
      "2005": 4463,
      "å¤º": 4464,
      "æī¿æĭħ": 4465,
      "urg": 4466,
      "Ġdown": 4467,
      "æľīæīĢ": 4468,
      "Ġshort": 4469,
      "ç«Ł": 4470,
      "éŀ": 4471,
      "åĲĹ": 4472,
      "ately": 4473,
      "å¾½": 4474,
      "ble": 4475,
      "çĽ¸å½ĵ": 4476,
      "æ²ŁéĢļ": 4477,
      "erg": 4478,
      "èī²çļĦ": 4479,
      "Ġplayer": 4480,
      "æŃ»äº¡": 4481,
      "Ġworld": 4482,
      "èĸĦ": 4483,
      "reet": 4484,
      "rew": 4485,
      "å°Ī": 4486,
      "Ġbus": 4487,
      "åĩºçĶŁ": 4488,
      "æī¾åĪ°": 4489,
      "ington": 4490,
      "å¸¸è§ģ": 4491,
      "è´¢æĶ¿": 4492,
      "Ġdue": 4493,
      "Ġhel": 4494,
      "century": 4495,
      "ently": 4496,
      "Ġlocal": 4497,
      "è°ĵ": 4498,
      "æ¨ª": 4499,
      "%ãĢĤ": 4500,
      "é¢Ħè®¡": 4501,
      "Ġbuilt": 4502,
      "è¿ħéĢŁ": 4503,
      "éĻ³": 4504,
      "æ²Ĵæľī": 4505,
      "èĲĦ": 4506,
      "éĢ²è¡Į": 4507,
      "ĠMc": 4508,
      "çĬ¶åĨµ": 4509,
      "med": 4510,
      "echn": 4511,
      "èĩ£": 4512,
      "çģ°": 4513,
      "åĽłçĤº": 4514,
      "éģĬ": 4515,
      "Ġcar": 4516,
      "ĠHar": 4517,
      "æ¶µ": 4518,
      "å½ĵçĦ¶": 4519,
      "ĠâĢĶ": 4520,
      "çºĮ": 4521,
      "å¤©æ´¥": 4522,
      "èªįçĤº": 4523,
      "èĳ¡èĲĦ": 4524,
      "è®¾ç«ĭ": 4525,
      "During": 4526,
      "åįĹéĥ¨": 4527,
      "Ġserved": 4528,
      "åŃ¦ä¼ļ": 4529,
      "æĪªèĩ³": 4530,
      "é»İ": 4531,
      "Ġcompet": 4532,
      "éĽ¢": 4533,
      "æįķ": 4534,
      "åĽ½åĬ¡éĻ¢": 4535,
      "ody": 4536,
      "çĬ¯ç½ª": 4537,
      "Ġpo": 4538,
      "Ġfive": 4539,
      "com": 4540,
      "ified": 4541,
      "çĭ¬çī¹": 4542,
      "çªģçł´": 4543,
      "ĠEurope": 4544,
      "åįĩçº§": 4545,
      "å¿ħè¦ģ": 4546,
      "è¯Ħä¼°": 4547,
      "ç®Ģç§°": 4548,
      "è·³": 4549,
      "éĶħ": 4550,
      "ides": 4551,
      "è®°å½ķ": 4552,
      "Ġcentury": 4553,
      "è¾ĸ": 4554,
      "åĸ·": 4555,
      "å®ħ": 4556,
      "äºĨä¸Ģä¸ª": 4557,
      "å»ī": 4558,
      "ä¸´åºĬ": 4559,
      "é¢Ĺ": 4560,
      "èµĽåŃ£": 4561,
      "çĽ¸åºĶ": 4562,
      "æ¡ĥ": 4563,
      "å®ŀéªĮå®¤": 4564,
      "åķĨåĬ¡": 4565,
      "Ġmember": 4566,
      "çĶµåĬĽ": 4567,
      "Ġperson": 4568,
      "çĶµæ±ł": 4569,
      "åıªèĥ½": 4570,
      "çĽ¸åĲĮ": 4571,
      "æ®ĭ": 4572,
      "Ġold": 4573,
      "Ġday": 4574,
      "Ġtrack": 4575,
      "Ġ2010": 4576,
      "åı¬å¼Ģ": 4577,
      "Ġheld": 4578,
      "èŀįåĲĪ": 4579,
      "éļĽ": 4580,
      "å°ĺ": 4581,
      "Ġ11": 4582,
      "æĶ¯ä»ĺ": 4583,
      "ç¯®": 4584,
      "åĪĢ": 4585,
      "å°¿": 4586,
      "åĪ·": 4587,
      "çĤ¸": 4588,
      "Ġrest": 4589,
      "ĠChrist": 4590,
      "è§Ģ": 4591,
      "ä»ĸåĢĳ": 4592,
      "å¿Ĩ": 4593,
      "å¦Ĥä»Ĭ": 4594,
      "ĠPol": 4595,
      "æīĢåľ¨": 4596,
      "ĠRec": 4597,
      "å£¤": 4598,
      "Ġtelevision": 4599,
      "é«ĺçŃī": 4600,
      "ĠBar": 4601,
      "èįĲ": 4602,
      "çĲĥåĳĺ": 4603,
      "è¿ŀæİ¥": 4604,
      "çļĦåľ°æĸ¹": 4605,
      "Ġcareer": 4606,
      "åŃ¦ä½į": 4607,
      "é¢Ħéĺ²": 4608,
      "Ġjoin": 4609,
      "akes": 4610,
      "è¶ĭåĬ¿": 4611,
      "é«ĺçº§": 4612,
      "åĢ¼å¾Ĺ": 4613,
      "å®¶éķ¿": 4614,
      "å¤ļæ¬¡": 4615,
      "æŁĶ": 4616,
      "Ġevent": 4617,
      "ä¼¸": 4618,
      "ï¼İ": 4619,
      "å½¢è±¡": 4620,
      "äº§åĵģçļĦ": 4621,
      "ondon": 4622,
      "æĭĽçĶŁ": 4623,
      "get": 4624,
      "å°Ĩåľ¨": 4625,
      "çļĦçĶŁæ´»": 4626,
      "Ġlit": 4627,
      "å£®": 4628,
      "uk": 4629,
      "åľ°åįĢ": 4630,
      "å¹¶åľ¨": 4631,
      "çĻ£": 4632,
      "raft": 4633,
      "Ġlarge": 4634,
      "ä¸»æĮģ": 4635,
      "Ġcr": 4636,
      "idd": 4637,
      "æ¨Ļ": 4638,
      "å°½ç®¡": 4639,
      "alk": 4640,
      "aul": 4641,
      "è®¤è¯ģ": 4642,
      "rol": 4643,
      "æľĢè¿ĳ": 4644,
      "åħħæ»¡": 4645,
      "Ġbecause": 4646,
      "æľīäºº": 4647,
      "æ¶Īè´¹èĢħ": 4648,
      "åįĬå¹´": 4649,
      "ature": 4650,
      "æ°¨": 4651,
      "ä¸ĭæĿ¥": 4652,
      "ĠRep": 4653,
      "estern": 4654,
      "çĮª": 4655,
      "èĥĮæĻ¯": 4656,
      "çĻ»è®°": 4657,
      "que": 4658,
      "Ġsouth": 4659,
      "Ġ$": 4660,
      "Ġref": 4661,
      "çīĽçļ®": 4662,
      "Ġdeath": 4663,
      "å¤§éĥ¨åĪĨ": 4664,
      "åıĺå¾Ĺ": 4665,
      "åĮħåĲ«": 4666,
      "åħĦ": 4667,
      "æª": 4668,
      "æĹ¥èµ·": 4669,
      "ket": 4670,
      "Ġrefer": 4671,
      "unicip": 4672,
      "use": 4673,
      "æĽ´æĺ¯": 4674,
      "é§": 4675,
      "itions": 4676,
      "åĪĨå¸ĥ": 4677,
      "omin": 4678,
      "Ġreport": 4679,
      "èª¿": 4680,
      "ĠX": 4681,
      "çļĨ": 4682,
      "è¾¦": 4683,
      "è®¾ç½®": 4684,
      "æĥ³è¦ģ": 4685,
      "ae": 4686,
      "èĤĮ": 4687,
      "åĬŀåħ¬å®¤": 4688,
      "ä¿Ħç½Ĺæĸ¯": 4689,
      "å®¶çļĦ": 4690,
      "ected": 4691,
      "angu": 4692,
      "é¥®é£Ł": 4693,
      "æĪĲéĥ½": 4694,
      "è¼ĥ": 4695,
      "Ġlist": 4696,
      "ext": 4697,
      "åŃĲçļĦ": 4698,
      "Ġ2011": 4699,
      "ä»¥åĲİ": 4700,
      "ä½ľèĢħ": 4701,
      "ĠDe": 4702,
      "éĺŁä¼į": 4703,
      "rem": 4704,
      "åīµ": 4705,
      "ĠEx": 4706,
      "èĭ±è¯Ń": 4707,
      "Ġfinal": 4708,
      "åĪ©çĽĬ": 4709,
      "atic": 4710,
      "yn": 4711,
      "çĲ´": 4712,
      "ĠWh": 4713,
      "èĩ³ä»Ĭ": 4714,
      "è¿ĽæŃ¥": 4715,
      "çµ¦": 4716,
      "éĻµ": 4717,
      "æ¡Īä»¶": 4718,
      "che": 4719,
      "ä¸ĢåĪĩ": 4720,
      "attle": 4721,
      "Ġcour": 4722,
      "åĲĦé¡¹": 4723,
      "å¾Ģå¾Ģ": 4724,
      "è¦ĨçĽĸ": 4725,
      "Ġfr": 4726,
      "å§ĭç»Ī": 4727,
      "Ġterm": 4728,
      "Ġ2005": 4729,
      "ene": 4730,
      "æľŁçļĦ": 4731,
      "å¼ºè°ĥ": 4732,
      "lin": 4733,
      "èĢĮè¨Ģ": 4734,
      "è¿ĳå¹´æĿ¥": 4735,
      "Ġpublished": 4736,
      "Ġcharacter": 4737,
      "éĥ¡": 4738,
      "æĢİä¹Ī": 4739,
      "ä½©": 4740,
      "ĠAf": 4741,
      "éħįåĲĪ": 4742,
      "ery": 4743,
      "åĩ¯": 4744,
      "Ġoriginal": 4745,
      "uff": 4746,
      "Ġ2009": 4747,
      "å¤ļå¹´": 4748,
      "å»ºæĪĲ": 4749,
      "Ġincluded": 4750,
      "å½¼": 4751,
      "ï½ŀ": 4752,
      "éĻ¸": 4753,
      "ç¢į": 4754,
      "çĶŁéķ¿": 4755,
      "åľ¨æŃ¤": 4756,
      "åĲİæĿ¥": 4757,
      "Ġvill": 4758,
      "æııè¿°": 4759,
      "Ġ0": 4760,
      "ä»Ļ": 4761,
      "Ġcamp": 4762,
      "è¿ĲçĶ¨": 4763,
      "ç¥ŀç»ı": 4764,
      "å°Ŀ": 4765,
      "ison": 4766,
      "çĵ·": 4767,
      "éļ¨": 4768,
      "ald": 4769,
      "ä¹łæĥ¯": 4770,
      "å¹¸ç¦ı": 4771,
      "app": 4772,
      "ights": 4773,
      "çīĽçļ®çĻ£": 4774,
      "åľ°ä¸ĭ": 4775,
      "æĦĪ": 4776,
      "è¯ģä¹¦": 4777,
      "ourn": 4778,
      "Ġnational": 4779,
      "ĠGeor": 4780,
      "çļĦäº§åĵģ": 4781,
      "å¤©çĦ¶": 4782,
      "ĠCollege": 4783,
      "çļĦæĥħ": 4784,
      "ä»¤äºº": 4785,
      "Ġdeb": 4786,
      "ä¸Ńåħ±": 4787,
      "ä¸Ģå®ļçļĦ": 4788,
      "ĠAir": 4789,
      "æī©å¤§": 4790,
      "Ġdescrib": 4791,
      "æĿŃ": 4792,
      "vious": 4793,
      "äººä½ĵ": 4794,
      "ç´łè´¨": 4795,
      "éĢļä¿¡": 4796,
      "éĥİ": 4797,
      "æĦĽ": 4798,
      "é¡Į": 4799,
      "Ġappro": 4800,
      "iod": 4801,
      "æŃ¦æ±ī": 4802,
      "æ»¤": 4803,
      "ino": 4804,
      "è´¢åĬ¡": 4805,
      "Ġgovernment": 4806,
      "åĬłä¸Ĭ": 4807,
      "ĠReg": 4808,
      "ç¤ºèĮĥ": 4809,
      "çŁ¥åĲį": 4810,
      "Ġ13": 4811,
      "ording": 4812,
      "ä¸ĢåĢĭ": 4813,
      "åº¦çļĦ": 4814,
      "èĢĥçĶŁ": 4815,
      "çľŁå®ŀ": 4816,
      "Ġtri": 4817,
      "åŃķ": 4818,
      "IS": 4819,
      "è®©äºº": 4820,
      "ief": 4821,
      "yp": 4822,
      "âĦ": 4823,
      "Ġlife": 4824,
      "é©±": 4825,
      "é¡µ": 4826,
      "æ²»çĲĨ": 4827,
      "Ġallow": 4828,
      "aim": 4829,
      "Ġsl": 4830,
      "Ġperform": 4831,
      "çİ°å®ŀ": 4832,
      "éĶĭ": 4833,
      "Ġjust": 4834,
      "å±¥": 4835,
      "åŁºäºİ": 4836,
      "ç¼´": 4837,
      "æĴ¤": 4838,
      "æĽ¾ç»ı": 4839,
      "äººå·¥æĻºèĥ½": 4840,
      "åı°æ¹¾": 4841,
      "è´¹çĶ¨": 4842,
      "riend": 4843,
      "è°ĭ": 4844,
      "åľ°äº§": 4845,
      "Ġcrit": 4846,
      "iven": 4847,
      "ĠFrench": 4848,
      "è¾ī": 4849,
      "NA": 4850,
      "æĪĺäºī": 4851,
      "Ġmark": 4852,
      "è¨±": 4853,
      "ç»ĻäºĪ": 4854,
      "adem": 4855,
      "æĬĳ": 4856,
      "èµ«": 4857,
      "çĤī": 4858,
      "æĻĵ": 4859,
      "ä¸Ĭè¿°": 4860,
      "èģĶèµĽ": 4861,
      "åĬŀçĲĨ": 4862,
      "ä¸Ģä½ĵ": 4863,
      "adio": 4864,
      "Ġanother": 4865,
      "earch": 4866,
      "éĿ¢ä¸´": 4867,
      "çļĦåŁºç¡Ģ": 4868,
      "æķ¦": 4869,
      "èĬĤçĽ®": 4870,
      "ana": 4871,
      "åķı": 4872,
      "åĸĿ": 4873,
      "Ġleg": 4874,
      "Ġconsid": 4875,
      "æ¦Ĥå¿µ": 4876,
      "é»ĥ": 4877,
      "çĽ´åĪ°": 4878,
      "Ġ30": 4879,
      "æĦŁåıĹ": 4880,
      "ç¾İä¸½": 4881,
      "Ġpar": 4882,
      "æĻ¨": 4883,
      "ideo": 4884,
      "oon": 4885,
      "ociation": 4886,
      "åĪĨäº«": 4887,
      "æ¬£": 4888,
      "æĶ¹éĢł": 4889,
      "æĹģ": 4890,
      "lymp": 4891,
      "Ġtop": 4892,
      "âĢĿâĢľ": 4893,
      "åģ¶": 4894,
      "ä½įæĸ¼": 4895,
      "ĠRiver": 4896,
      "2004": 4897,
      "èĻİ": 4898,
      "åį³ä½¿": 4899,
      "å¸ķ": 4900,
      "çļĦæ°´": 4901,
      "åľ¨ä¸ŃåĽ½": 4902,
      "éİ": 4903,
      "æ°ĳä¸»": 4904,
      "è¡¨æ¼Ķ": 4905,
      "å®ĺæĸ¹": 4906,
      "ively": 4907,
      "èĤ¿": 4908,
      "ä¸»ç®¡": 4909,
      "èĩªä¸»": 4910,
      "Ġprofess": 4911,
      "åħįçĸ«": 4912,
      "Ġborn": 4913,
      "eder": 4914,
      "Ġpresent": 4915,
      "çĽ¸äºĴ": 4916,
      "åĮ»èį¯": 4917,
      "ĠBe": 4918,
      "ãĢĲ": 4919,
      "åĩłä¹İ": 4920,
      "çī¹åĪ«æĺ¯": 4921,
      "æĬ¢": 4922,
      "å§Ķä¼ļ": 4923,
      "æİ¨èįĲ": 4924,
      "Un": 4925,
      "ï¼Īï¼īï¼Į": 4926,
      "Ġthough": 4927,
      "åĲ«æľī": 4928,
      "ĠAt": 4929,
      "çĶ±æĸ¼": 4930,
      "èĿ": 4931,
      "Ã¡": 4932,
      "åĳĪçİ°": 4933,
      "æıĲä¾ĽäºĨ": 4934,
      "ãģ": 4935,
      "Ar": 4936,
      "æįĲ": 4937,
      "åį¢": 4938,
      "çľ¾": 4939,
      "æµ·æ´ĭ": 4940,
      "uthor": 4941,
      "âĦĥ": 4942,
      "When": 4943,
      "å´ĩ": 4944,
      "èī¯å¥½": 4945,
      "ĠAng": 4946,
      "For": 4947,
      "Wh": 4948,
      "ara": 4949,
      "æł¡åĽŃ": 4950,
      "æĺĨ": 4951,
      "ata": 4952,
      "æķ¢": 4953,
      "è´¦": 4954,
      "åįĵ": 4955,
      "è°±": 4956,
      "åĮħè£ħ": 4957,
      "ä¹ĥ": 4958,
      "ety": 4959,
      "åīįçļĦ": 4960,
      "è£ħé¥°": 4961,
      "Ġarr": 4962,
      "onom": 4963,
      "ä¼ĺåĮĸ": 4964,
      "55": 4965,
      "èļĢ": 4966,
      "ãĢĳ": 4967,
      "Ġrepl": 4968,
      "ä½ĵçİ°": 4969,
      "çĵľ": 4970,
      "é¤¨": 4971,
      "190": 4972,
      "è§£éĩĬ": 4973,
      "ummer": 4974,
      "æ»¨": 4975,
      "éĥŃ": 4976,
      "çº½": 4977,
      "çķħ": 4978,
      "äººæ°ĳæĶ¿åºľ": 4979,
      "ler": 4980,
      "å¥§": 4981,
      "åĢ¾": 4982,
      "Ġresult": 4983,
      "ç²ĺ": 4984,
      "çµĤ": 4985,
      "æľ¬èº«": 4986,
      "æĸĩçī©": 4987,
      "äºĭå®ŀ": 4988,
      "çŁ³æ²¹": 4989,
      "Ġwee": 4990,
      "Ġthird": 4991,
      "æĿĨ": 4992,
      "ĠAm": 4993,
      "ç¾Ĭ": 4994,
      "è®¨è®º": 4995,
      "ä¸Ńå°ı": 4996,
      "åħ±æľī": 4997,
      "å¿ĹæĦ¿": 4998,
      "çŃīæĸ¹éĿ¢": 4999,
      "èĪĪ": 5000,
      "èĦı": 5001,
      "ç¬¬ä¸Ģæ¬¡": 5002,
      "æľīäºĨ": 5003,
      "ĠCup": 5004,
      "å°¤åħ¶æĺ¯": 5005,
      "æ³ķè§Ħ": 5006,
      "Ġstill": 5007,
      "çĭĹ": 5008,
      "ä¸ŃåŃ¦": 5009,
      "æĪĲçļĦ": 5010,
      "æ±¤": 5011,
      "æ¸¡": 5012,
      "æ®¿": 5013,
      "ared": 5014,
      "Ġadv": 5015,
      "aces": 5016,
      "ä¸Ģå®¶": 5017,
      "Ġport": 5018,
      "Ġepisode": 5019,
      "hem": 5020,
      "æĿ¥æºĲ": 5021,
      "TC": 5022,
      "å¦Ī": 5023,
      "line": 5024,
      "alf": 5025,
      "Ġinst": 5026,
      "éĻķ": 5027,
      "æľĪä»½": 5028,
      "åıįæĺł": 5029,
      "äºĭæķħ": 5030,
      "work": 5031,
      "Ġlike": 5032,
      "äº«åıĹ": 5033,
      "è²Į": 5034,
      "ĠSy": 5035,
      "åįıè°ĥ": 5036,
      "Ġdied": 5037,
      "åħ¬å®ī": 5038,
      "æĭĴ": 5039,
      "ç¬¬äºĶ": 5040,
      "åįĶ": 5041,
      "å°ıç»Ħ": 5042,
      "èĳĹåĲį": 5043,
      "åħ¬åĳĬ": 5044,
      "æ°Ľ": 5045,
      "ĠMed": 5046,
      "Ġ190": 5047,
      "é¢ľèī²": 5048,
      "Ġwater": 5049,
      "çĲĨæĥ³": 5050,
      "ences": 5051,
      "Ġdet": 5052,
      "å§Ĳ": 5053,
      "éĺ²æŃ¢": 5054,
      "ä»Ķ": 5055,
      "æ²Ī": 5056,
      "ĠLondon": 5057,
      "çĶľ": 5058,
      "ä¸ĬåįĪ": 5059,
      "æľ¬ç§ĳ": 5060,
      "çįİ": 5061,
      "å»·": 5062,
      "åħ¨ä½ĵ": 5063,
      "BC": 5064,
      "èĥİ": 5065,
      "å¡ĳæĸĻ": 5066,
      "tain": 5067,
      "çī§": 5068,
      "çĸĨ": 5069,
      "Ġmoved": 5070,
      "å¢ĵ": 5071,
      "çļĦä¸Ģç§į": 5072,
      "99": 5073,
      "ä¼ļä¸Ĭ": 5074,
      "Ġ2004": 5075,
      "ĠComp": 5076,
      "arried": 5077,
      "äººçĶŁ": 5078,
      "éĽ»å½±": 5079,
      "æ¬²": 5080,
      "è¡¨æĺİ": 5081,
      "å¨ľ": 5082,
      "int": 5083,
      "éĹ²": 5084,
      "Ġbest": 5085,
      "å¼ºçļĦ": 5086,
      "åģļåĩº": 5087,
      "BA": 5088,
      "æİ¨åĩº": 5089,
      "urs": 5090,
      "osp": 5091,
      "ç¢ĳ": 5092,
      "è®ĵ": 5093,
      "æħĪ": 5094,
      "mm": 5095,
      "éĩĮçļĦ": 5096,
      "ches": 5097,
      "Ġrequ": 5098,
      "avy": 5099,
      "ards": 5100,
      "ä¸»åĬ¨": 5101,
      "Ġson": 5102,
      "çķ¶æĻĤ": 5103,
      "48": 5104,
      "å®ŀåĬĽ": 5105,
      "unct": 5106,
      "èµĸ": 5107,
      "Ġstand": 5108,
      "èĬĤèĥ½": 5109,
      "75": 5110,
      "éĶ¦": 5111,
      "å¼ºåº¦": 5112,
      "è¿Ļæ¬¡": 5113,
      "2003": 5114,
      "Ġmillion": 5115,
      "æĲº": 5116,
      "çİĽ": 5117,
      "ĠHe": 5118,
      "åĲ¸æĶ¶": 5119,
      "ä¸°å¯ĮçļĦ": 5120,
      "åľ¨çº¿": 5121,
      "å®Įæķ´": 5122,
      "çłĶç©¶æīĢ": 5123,
      "ĠChampionship": 5124,
      "ç·¨": 5125,
      "çī¹å¾ģ": 5126,
      "Ġav": 5127,
      "è§Ĥå¯Ł": 5128,
      "inning": 5129,
      "æ··åĲĪ": 5130,
      "co": 5131,
      "æ²³åĮĹ": 5132,
      "çļĦåīį": 5133,
      "Ġvis": 5134,
      "èŃ·": 5135,
      "èħ¹": 5136,
      "ĠPart": 5137,
      "ument": 5138,
      "è¯ķéªĮ": 5139,
      "ĠEl": 5140,
      "Ġlaw": 5141,
      "åĩłä¸ª": 5142,
      "çļĦä¼ģä¸ļ": 5143,
      "çºªå¿µ": 5144,
      "Ġvery": 5145,
      "å¹»": 5146,
      "æĭĨ": 5147,
      "å±ħä½ı": 5148,
      "ä¸Ģå®ļè¦ģ": 5149,
      "å¾¡": 5150,
      "å½±çīĩ": 5151,
      "çĪŃ": 5152,
      "ĠPar": 5153,
      "Ġwithin": 5154,
      "ĠAnd": 5155,
      "å¿ĥçļĦ": 5156,
      "è°ģ": 5157,
      "iforn": 5158,
      "ĠEngland": 5159,
      "na": 5160,
      "æŃ·": 5161,
      "è³ª": 5162,
      "åľ¾": 5163,
      "è§Ĵåº¦": 5164,
      "day": 5165,
      "çº¹": 5166,
      "åĪ©æ¶¦": 5167,
      "åŀĥ": 5168,
      "åŀĥåľ¾": 5169,
      "Ġturn": 5170,
      "itar": 5171,
      "Ġhand": 5172,
      "ps": 5173,
      "ä¸įåĨį": 5174,
      "æ¢¯": 5175,
      "æīĭæ®µ": 5176,
      "åĲįä¸º": 5177,
      "è¿ĳæĹ¥": 5178,
      "Ġperiod": 5179,
      "åįģå¹´": 5180,
      "ä¼łæĴŃ": 5181,
      "Ġaddition": 5182,
      "--": 5183,
      "è¾½": 5184,
      "æĵĶ": 5185,
      "åħ´è¶£": 5186,
      "ency": 5187,
      "åĲĪæł¼": 5188,
      "é¢ĨåħĪ": 5189,
      "Ġmonth": 5190,
      "é©¾é©¶": 5191,
      "éĺħè¯»": 5192,
      "åįļçī©é¦Ĩ": 5193,
      "è£Ŀ": 5194,
      "çļĦå¿ĥ": 5195,
      "èģĶçĽŁ": 5196,
      "Ġattack": 5197,
      "ĠMin": 5198,
      "Ġ25": 5199,
      "1000": 5200,
      "ailway": 5201,
      "ç¥¥": 5202,
      "çłĶç©¶çĶŁ": 5203,
      "2021": 5204,
      "æĴĳ": 5205,
      "ç¹¼": 5206,
      "ifornia": 5207,
      "å°ĸ": 5208,
      "omb": 5209,
      "æĢĿèĢĥ": 5210,
      "æĭ¼": 5211,
      "éĤĬ": 5212,
      "Ġprot": 5213,
      "åľĭå®¶": 5214,
      "åĹ": 5215,
      "Ġdem": 5216,
      "è¡Ĺéģĵ": 5217,
      "åĲ¯åĬ¨": 5218,
      "ĠWilliam": 5219,
      "Ġhouse": 5220,
      "ilitary": 5221,
      "åĩĨç¡®": 5222,
      "ĠFor": 5223,
      "Ġside": 5224,
      "ç¾İçļĦ": 5225,
      "ering": 5226,
      "95": 5227,
      "ä»¿": 5228,
      "field": 5229,
      "æ¹ĸåĮĹ": 5230,
      "çªģåĩº": 5231,
      "éĺ²æİ§": 5232,
      "éŃı": 5233,
      "æĸ°åŀĭ": 5234,
      "avid": 5235,
      "åŁºåĽł": 5236,
      "Ġ2012": 5237,
      "çĪ¶äº²": 5238,
      "æ¸ł": 5239,
      "é¢ģ": 5240,
      "èĦ¸": 5241,
      "ones": 5242,
      "Ġsk": 5243,
      "æµ¦": 5244,
      "ä¼ļè®¡": 5245,
      "è£ħå¤ĩ": 5246,
      "èĩ³å°ĳ": 5247,
      "Ġinclude": 5248,
      "Ġversion": 5249,
      "Ġconc": 5250,
      "èĴ¸": 5251,
      "ç¾½": 5252,
      "Ġconstruct": 5253,
      "åĨĴ": 5254,
      "æķĻèĤ²éĥ¨": 5255,
      "å¤§å¤ļæķ°": 5256,
      "é¸Ł": 5257,
      "ä¸Ńèı¯": 5258,
      "ãĢĭãĢĬ": 5259,
      "ç²®": 5260,
      "reg": 5261,
      "Ġled": 5262,
      "æ®º": 5263,
      "Ġif": 5264,
      "ĠHouse": 5265,
      "çļĦä¸į": 5266,
      "æĺ¯ä¸ŃåĽ½": 5267,
      "æİĺ": 5268,
      "å¦¹": 5269,
      "ç´¯è®¡": 5270,
      "lands": 5271,
      "åĲĦä¸ª": 5272,
      "orts": 5273,
      "Ġprevious": 5274,
      "æ£®æŀĹ": 5275,
      "Ġdifferent": 5276,
      "Ġproduced": 5277,
      "ĠAmeric": 5278,
      "åį±éĻ©": 5279,
      "br": 5280,
      "Ġsold": 5281,
      "æĸ¯çī¹": 5282,
      "é«ĺæķĪ": 5283,
      "é¼ĵåĬ±": 5284,
      "ç»ıåħ¸": 5285,
      "å°Ĩä¼ļ": 5286,
      "Ġbuilding": 5287,
      "cast": 5288,
      "æĤ²": 5289,
      "par": 5290,
      "åįµ": 5291,
      "ĠSup": 5292,
      "åĬĥ": 5293,
      "æĪ²": 5294,
      "ç¨¿": 5295,
      "ness": 5296,
      "çļĦä½ľçĶ¨": 5297,
      "çĤŃ": 5298,
      "ouncil": 5299,
      "åħĴ": 5300,
      "ĠCor": 5301,
      "ä¹ĭå¾Į": 5302,
      "æłĩå¿Ĺ": 5303,
      "Ġpost": 5304,
      "èĤĿ": 5305,
      "Ġservice": 5306,
      "çĶµåĬ¨": 5307,
      "ĠAfric": 5308,
      "èĩ´åĬĽ": 5309,
      "éłħ": 5310,
      "éĦī": 5311,
      "å¾ªçİ¯": 5312,
      "æľºçļĦ": 5313,
      "èµ´": 5314,
      "éĻ¢æł¡": 5315,
      "ä¸ĵåĪ©": 5316,
      "å¹´é¾Ħ": 5317,
      "ady": 5318,
      "éŁ©åĽ½": 5319,
      "æ¼Ķåĳĺ": 5320,
      "è·ĥ": 5321,
      "æĲľ": 5322,
      "yle": 5323,
      "èĤ¯å®ļ": 5324,
      "éĮĦ": 5325,
      "off": 5326,
      "gin": 5327,
      "ĠGl": 5328,
      "ĠAustralia": 5329,
      "Ġopp": 5330,
      "è¦ı": 5331,
      "Ġiss": 5332,
      "åĪºæ¿Ģ": 5333,
      "è¡Ľ": 5334,
      "èĬ¯": 5335,
      "ael": 5336,
      "esp": 5337,
      "Ġcover": 5338,
      "æķĮ": 5339,
      "åģļåĪ°": 5340,
      "Ġkill": 5341,
      "åļ": 5342,
      "åĪĨç±»": 5343,
      "åı¯ä»¥åľ¨": 5344,
      "çĶŁæ´»ä¸Ń": 5345,
      "éĨ«": 5346,
      "ĠItal": 5347,
      "æ¨£": 5348,
      "æĶ¶éĽĨ": 5349,
      "Ġpower": 5350,
      "çİ©å®¶": 5351,
      "æĮĩæłĩ": 5352,
      "å§Ķåĵ¡": 5353,
      "self": 5354,
      "éĢĲæŃ¥": 5355,
      "çĽĳæµĭ": 5356,
      "è§£åĨ³æĸ¹æ¡Ī": 5357,
      "Ġ2000": 5358,
      "æĪĲåĪĨ": 5359,
      "ĠSec": 5360,
      "ç´į": 5361,
      "ĠâĢľ": 5362,
      "å¨±ä¹Ĳ": 5363,
      "65": 5364,
      "æĬ±": 5365,
      "88": 5366,
      "æĥħç»ª": 5367,
      "ç¡ķå£«": 5368,
      "hel": 5369,
      "çŃīå¥ĸ": 5370,
      "Ġvoc": 5371,
      "ä¹Łåľ¨": 5372,
      "Ġannounc": 5373,
      "2002": 5374,
      "æİĴæĶ¾": 5375,
      "æĻ¯åĮº": 5376,
      "ring": 5377,
      "çļĦåĲĮæĹ¶": 5378,
      "å¹³è¡¡": 5379,
      "æĪ¿å±ĭ": 5380,
      "ä¾Ŀæį®": 5381,
      "umb": 5382,
      "èĴĻåı¤": 5383,
      "ĠCalifornia": 5384,
      "Ġcurrent": 5385,
      "Ġorigin": 5386,
      "çļĦæĸ¹æ³ķ": 5387,
      "æ©¡": 5388,
      "rote": 5389,
      "å½ĵåīį": 5390,
      "aint": 5391,
      "Ġwar": 5392,
      "Ġlate": 5393,
      "çĺ¤": 5394,
      "æĪĲå°±": 5395,
      "å¸Ĥæ°ĳ": 5396,
      "æĦıå¤§åĪ©": 5397,
      "Ġeduc": 5398,
      "è¯¦ç»Ĩ": 5399,
      "èĶ¬": 5400,
      "çº¤ç»´": 5401,
      "åħ¬ä¼Ĺ": 5402,
      "åĨ³èµĽ": 5403,
      "äºİæĺ¯": 5404,
      "æĹ¥èĩ³": 5405,
      "èĩªè¡Į": 5406,
      "é¡ºåĪ©": 5407,
      "è®ºæĸĩ": 5408,
      "åĽ´ç»ķ": 5409,
      "åħģ": 5410,
      "hern": 5411,
      "åıĳçĶµ": 5412,
      "èĻ«": 5413,
      "å¿Ļ": 5414,
      "ilar": 5415,
      "æ±Ĺ": 5416,
      "ĠRuss": 5417,
      "ä¼Ĺå¤ļ": 5418,
      "Ġfilms": 5419,
      "çļĦçłĶç©¶": 5420,
      "æ¶Īéĺ²": 5421,
      "èħ¾": 5422,
      "Ġoften": 5423,
      "èĩºçģ£": 5424,
      "æ¼ı": 5425,
      "ä¿Ŀæ¸©": 5426,
      "CA": 5427,
      "åľ¨äºİ": 5428,
      "ç±»åŀĭ": 5429,
      "Ġmuch": 5430,
      "é«ĺä¸Ń": 5431,
      "ä¹ĭä¸Ń": 5432,
      "æł·çļĦ": 5433,
      "å°ıçļĦ": 5434,
      "è¥¿éĥ¨": 5435,
      "Ġrole": 5436,
      "ĠMich": 5437,
      "åĪ¶åĵģ": 5438,
      "Ġchildren": 5439,
      "åĴĸ": 5440,
      "ç©Ĩ": 5441,
      "æĶ¾åľ¨": 5442,
      "è»Ĭç«Ļ": 5443,
      "Ġfield": 5444,
      "ĠAb": 5445,
      "äºļæ´²": 5446,
      "Ġtitle": 5447,
      "aur": 5448,
      "ean": 5449,
      "Ġmake": 5450,
      "è¤": 5451,
      "åı¯éĿł": 5452,
      "ä¸Ĭåįĩ": 5453,
      "ç§Ĵ": 5454,
      "çī©çļĦ": 5455,
      "Ġincre": 5456,
      "èĥ½éĩı": 5457,
      "è£ħç½®": 5458,
      "æĲ¬": 5459,
      "Ġrepresent": 5460,
      "forman": 5461,
      "çķª": 5462,
      "Ġequ": 5463,
      "å®¤åĨħ": 5464,
      "ze": 5465,
      "çĶŁç´ł": 5466,
      "æ¼Ķåĩº": 5467,
      "éļıåĲİ": 5468,
      "ç¼ºä¹ı": 5469,
      "ĠDr": 5470,
      "ç¾İæľ¯": 5471,
      "æ³¨éĩį": 5472,
      "åľį": 5473,
      "éľį": 5474,
      "artment": 5475,
      "vers": 5476,
      "è°Ĳ": 5477,
      "Ġmag": 5478,
      "sk": 5479,
      "umn": 5480,
      "è©ķ": 5481,
      "æī°": 5482,
      "of": 5483,
      "Ġcame": 5484,
      "å¯¸": 5485,
      "æ¡ĳ": 5486,
      "éĵº": 5487,
      "åĪĽå»º": 5488,
      "æĸ¯åĿ¦": 5489,
      "çł´åĿı": 5490,
      "åľ¨è¿Ļ": 5491,
      "Ġwomen": 5492,
      "å¦Ļ": 5493,
      "ĠEn": 5494,
      "æ¨ĵ": 5495,
      "æĹ¥åľ¨": 5496,
      "éģĩåĪ°": 5497,
      "alt": 5498,
      "æ°ĶåĢĻ": 5499,
      "ization": 5500,
      "Ġdistrict": 5501,
      "Ġspecies": 5502,
      "Ġnov": 5503,
      "Ġdel": 5504,
      "æĸ¹çļĦ": 5505,
      "å¾©": 5506,
      "æł¹æľ¬": 5507,
      "å¼ķå¯¼": 5508,
      "æĴŀ": 5509,
      "å¤±åİ»": 5510,
      "Ġbre": 5511,
      "ges": 5512,
      "èĹĿ": 5513,
      "èĺĩ": 5514,
      "æĢª": 5515,
      "åĲĮæ¯Ķ": 5516,
      "oyal": 5517,
      "å®ŀè¡Į": 5518,
      "uted": 5519,
      "æµ·å¤ĸ": 5520,
      "ä½łä»¬": 5521,
      "Ġhistory": 5522,
      "åľ°çļĦ": 5523,
      "åħ¹": 5524,
      "Ġ2003": 5525,
      "Ġwritten": 5526,
      "çļĦå¥½": 5527,
      "è®¸åı¯": 5528,
      "æĦıåĳ³": 5529,
      "æĢģåº¦": 5530,
      "åĲĮå¹´": 5531,
      "ä»£çĲĨ": 5532,
      "èĤ¡ç¥¨": 5533,
      "Ġthose": 5534,
      "æī£": 5535,
      "éĥ¨éķ¿": 5536,
      "å¤©æ°Ķ": 5537,
      "å¾Īå¤§": 5538,
      "åĽŀåĪ°": 5539,
      "æŃĲ": 5540,
      "è¥¿å®ī": 5541,
      "èĤ¡ä»½æľīéĻĲåħ¬åı¸": 5542,
      "dom": 5543,
      "åĴĮåħ¶ä»ĸ": 5544,
      "ä¸Ģæ®µ": 5545,
      "äººæķ°": 5546,
      "çļĦæĬĢæľ¯": 5547,
      "Ġposs": 5548,
      "oll": 5549,
      "ense": 5550,
      "æłı": 5551,
      "æĸĩåŃĹ": 5552,
      "ç¡«": 5553,
      "ĠSan": 5554,
      "2001": 5555,
      "ĠTe": 5556,
      "å¤©çļĦ": 5557,
      "Ġexpl": 5558,
      "å°ıè¯´": 5559,
      "æĳĨ": 5560,
      "ĠYou": 5561,
      "è¿Ŀæ³ķ": 5562,
      "orthern": 5563,
      "éĩĩè´Ń": 5564,
      "ched": 5565,
      "éĥģ": 5566,
      "Ġeven": 5567,
      "æĿ¥åĪ°": 5568,
      "Ġla": 5569,
      "éĤ»": 5570,
      "æķ°åŃ¦": 5571,
      "Ġexper": 5572,
      "åĽºå®ļ": 5573,
      "uit": 5574,
      "å¯¹è±¡": 5575,
      "æĭĽæłĩ": 5576,
      "Ġwin": 5577,
      "åľ°åĿĢ": 5578,
      "åĳ¼åĲ¸": 5579,
      "Ġbusiness": 5580,
      "ä¾ĿçĦ¶": 5581,
      "ä»°": 5582,
      "æ¸¸å®¢": 5583,
      "ä»ĵ": 5584,
      "ĠAward": 5585,
      "æ¯ķä¸ļçĶŁ": 5586,
      "Ġlevel": 5587,
      "ett": 5588,
      "æĤ¬": 5589,
      "æµģç¨ĭ": 5590,
      "Ġpat": 5591,
      "çłĤ": 5592,
      "ape": 5593,
      "Ġproject": 5594,
      "Ġwent": 5595,
      "Ġtw": 5596,
      "ï¼Īï¼Į": 5597,
      "Ġne": 5598,
      "ger": 5599,
      "æĪĲçĨŁ": 5600,
      "éĥ½åľ¨": 5601,
      "å±ķçİ°": 5602,
      "çłĶç©¶éĻ¢": 5603,
      "æĻ®éģį": 5604,
      "çļĦä¸Ń": 5605,
      "æŁı": 5606,
      "ĠIndian": 5607,
      "éĻ½": 5608,
      "åİ¦": 5609,
      "åĤĻ": 5610,
      "éĽ»è¦ĸ": 5611,
      "çĴ°": 5612,
      "ached": 5613,
      "ç¦»å¼Ģ": 5614,
      "çľł": 5615,
      "Ġwhat": 5616,
      "æµĭéĩı": 5617,
      "ined": 5618,
      "çī¢": 5619,
      "å¼ºåĮĸ": 5620,
      "irl": 5621,
      "ica": 5622,
      "èģ²": 5623,
      "æĬķæłĩ": 5624,
      "è¡°": 5625,
      "çİ¯èĬĤ": 5626,
      "å«Į": 5627,
      "ĠPhil": 5628,
      "éģĵå¾·": 5629,
      "ä¸»è¦ģæĺ¯": 5630,
      "ä½ľåĩº": 5631,
      "urther": 5632,
      "ĠStreet": 5633,
      "èħĶ": 5634,
      "ï¼ħ": 5635,
      "å°±åı¯ä»¥": 5636,
      "çĹħä¾ĭ": 5637,
      "æįŁå¤±": 5638,
      "åİĤå®¶": 5639,
      "è¥¿çľģ": 5640,
      "ç»´ä¿®": 5641,
      "çį²å¾Ĺ": 5642,
      "åī©": 5643,
      "ä¸ºä»Ģä¹Ī": 5644,
      "æĽ¹": 5645,
      "æĽ´å¥½çļĦ": 5646,
      "Ġtrad": 5647,
      "ged": 5648,
      "Ġnext": 5649,
      "Ġstory": 5650,
      "å¸ĥå±Ģ": 5651,
      "Ġroad": 5652,
      "ä½Ĩåľ¨": 5653,
      "éĨĩ": 5654,
      "ĠGro": 5655,
      "çĵ¶": 5656,
      "æĹ¥åīį": 5657,
      "è¿Ľåı£": 5658,
      "æĪĸæĺ¯": 5659,
      ")ãĢĤ": 5660,
      "ĠOlymp": 5661,
      "ç¦ıå»º": 5662,
      "æĩĤ": 5663,
      "çľģçº§": 5664,
      "éħįå¥Ĺ": 5665,
      "æĭĽèģĺ": 5666,
      "98": 5667,
      "åĭĿ": 5668,
      "aken": 5669,
      "çĻ¼å±ķ": 5670,
      "æĹ¶çļĦ": 5671,
      "åīĳ": 5672,
      "ops": 5673,
      "Ġnon": 5674,
      "ĠDist": 5675,
      "ĠEast": 5676,
      "ys": 5677,
      "åĮ¹": 5678,
      "æ£ĭ": 5679,
      "æŁĲäºĽ": 5680,
      "æľīä¸Ģä¸ª": 5681,
      "çĲĨäºĭ": 5682,
      "å®ĹæķĻ": 5683,
      "èĢĮåľ¨": 5684,
      "è¥¿åįĹ": 5685,
      "Ġstudents": 5686,
      "å¯»æī¾": 5687,
      "ç¦»åŃĲ": 5688,
      "Ġauthor": 5689,
      "èĲ¥ä¸ļ": 5690,
      "å¼ķåıĳ": 5691,
      "è¿Ī": 5692,
      "éĢĨ": 5693,
      "lex": 5694,
      "åĩī": 5695,
      "åĽ½æ°ĳ": 5696,
      "åıĳåĬ¨": 5697,
      "ç¢İ": 5698,
      "çºµ": 5699,
      "ush": 5700,
      "æ¸ħæ´ģ": 5701,
      "ä¸Ģè·¯": 5702,
      "omet": 5703,
      "æĸ°åĨł": 5704,
      "Ġmunicip": 5705,
      "Ġel": 5706,
      "ä¸ĢçĤ¹": 5707,
      "å»ºéĢł": 5708,
      "åľºæīĢ": 5709,
      "æĶ¯æĴĳ": 5710,
      "éļ¾ä»¥": 5711,
      "ç¶²": 5712,
      "åıĳè¡Į": 5713,
      "ander": 5714,
      "å¦Ĥæŀľä½ł": 5715,
      "èŀįèµĦ": 5716,
      "éĥ¨ç½²": 5717,
      "äºĭæĥħ": 5718,
      "Ġchang": 5719,
      "Ġfather": 5720,
      "Ġtotal": 5721,
      "Ġ2013": 5722,
      "Ġhaving": 5723,
      "Ġopened": 5724,
      "eople": 5725,
      "ç®Ń": 5726,
      "åĮºçļĦ": 5727,
      "å¤ļå°ĳ": 5728,
      "éħ¯": 5729,
      "47": 5730,
      "ney": 5731,
      "||": 5732,
      "Ġ[": 5733,
      "ĠInternational": 5734,
      "èĤºçĤİ": 5735,
      "Ġwrote": 5736,
      "ize": 5737,
      "Ġvillage": 5738,
      "æīĭæľ¯": 5739,
      "Ġbecome": 5740,
      "tr": 5741,
      "å¿«ä¹Ĳ": 5742,
      "ä¹Ķ": 5743,
      "ä¹Łå°±æĺ¯": 5744,
      "ĠRoad": 5745,
      "Ġ2002": 5746,
      "400": 5747,
      "ced": 5748,
      "Ġcor": 5749,
      "å±ķè§Ī": 5750,
      "å®īå¾½": 5751,
      "å·¥ä½ľäººåĳĺ": 5752,
      "Ġeffect": 5753,
      "Ġfre": 5754,
      "ä¿Ĭ": 5755,
      "å±ķå¼Ģ": 5756,
      "èİī": 5757,
      "ration": 5758,
      "çĤ®": 5759,
      "æľīåĪ©": 5760,
      "åħ¶å®ĥ": 5761,
      "ç³»ç»ŁçļĦ": 5762,
      "å²ģçļĦ": 5763,
      "Ġsite": 5764,
      "è½¬åŀĭ": 5765,
      "mit": 5766,
      "åºĻ": 5767,
      "ä¸Ļ": 5768,
      "åĴĮç¤¾ä¼ļ": 5769,
      "bert": 5770,
      "Ġinit": 5771,
      "epend": 5772,
      "Ġsol": 5773,
      "åķ¡": 5774,
      "æĦŁè°¢": 5775,
      "TV": 5776,
      "Ġage": 5777,
      "è·Į": 5778,
      "Ġyoung": 5779,
      "anguage": 5780,
      "æģĭ": 5781,
      "éĵ¸": 5782,
      "çĶµèĦĳ": 5783,
      "ä»ªå¼ı": 5784,
      "ä¸Ģä»½": 5785,
      "ole": 5786,
      "æĢ»ç»ıçĲĨ": 5787,
      "ms": 5788,
      "ä¸ĢæĿ¡": 5789,
      "Ġfac": 5790,
      "Ġ2001": 5791,
      "ves": 5792,
      "Ġtem": 5793,
      "åŃ¤": 5794,
      "æ³³": 5795,
      "ç¡ħ": 5796,
      "eneral": 5797,
      "è½¦ç«Ļ": 5798,
      "åıĳçĹħ": 5799,
      "Ġproduction": 5800,
      "46": 5801,
      "ĠSch": 5802,
      "Ġcollect": 5803,
      "Ġamong": 5804,
      "éĽĨä½ĵ": 5805,
      "Ġcountry": 5806,
      "æĽ´å¥½åľ°": 5807,
      "åħ±äº§": 5808,
      "ploy": 5809,
      "ä¼Ĳ": 5810,
      "éĺĶ": 5811,
      "éĶģ": 5812,
      "ç±»ä¼¼": 5813,
      "æĺĤ": 5814,
      "åľ¨ä¸Ģèµ·": 5815,
      "ama": 5816,
      "æıĴ": 5817,
      "å®ļæľŁ": 5818,
      "åľ°çĲĨ": 5819,
      "æĮĸ": 5820,
      "è©¦": 5821,
      "ä¸Ģèĩ´": 5822,
      "çĸı": 5823,
      "ä½¿åĳ½": 5824,
      "æ¡Ĥ": 5825,
      "eared": 5826,
      "èĤĥ": 5827,
      "åĲĮæĻĤ": 5828,
      "irc": 5829,
      "ä¸ĵé¡¹": 5830,
      "è§ĦåĪĻ": 5831,
      "ä¸ĸçķĮä¸Ĭ": 5832,
      "Ġhistor": 5833,
      "æķĹ": 5834,
      "Ġorder": 5835,
      "äººæ°ĳå¸ģ": 5836,
      "æĹ©æľŁ": 5837,
      "è§£æĶ¾": 5838,
      "Ġaff": 5839,
      "æĹº": 5840,
      "Ġfew": 5841,
      "åĲĮæĦı": 5842,
      "æľĢæĸ°": 5843,
      "èĬ¬": 5844,
      "æ¼¢": 5845,
      "çļĦçĥŃ": 5846,
      "Ġway": 5847,
      "æ¸ħæ¥ļ": 5848,
      "ania": 5849,
      "å¯Ħ": 5850,
      "æĢ»ä½ĵ": 5851,
      "æ°Ķä½ĵ": 5852,
      "åĲ«éĩı": 5853,
      "Ġinvol": 5854,
      "èµ¤": 5855,
      "æĮĩæĮ¥": 5856,
      "åĨ³çŃĸ": 5857,
      "ç¿°": 5858,
      "SA": 5859,
      "çĽ¾": 5860,
      "å¤ĸçļĦ": 5861,
      "Ġ100": 5862,
      "çĪ±æĥħ": 5863,
      "äºĳåįĹ": 5864,
      "urb": 5865,
      "é£Ľ": 5866,
      "ç®¡éģĵ": 5867,
      "åı¤ä»£": 5868,
      "èĤ¡ä¸ľ": 5869,
      "Ġsit": 5870,
      "è¾ŀ": 5871,
      "çľģä»½": 5872,
      "å®Ļ": 5873,
      "å¿½": 5874,
      "Ġgiven": 5875,
      "æ°¯": 5876,
      "ream": 5877,
      "astern": 5878,
      "åĩ½": 5879,
      "é«ĺæ¸©": 5880,
      "éŁ¿": 5881,
      "éģĭåĭķ": 5882,
      "è¢Ń": 5883,
      "oe": 5884,
      "çļĦåĲį": 5885,
      "Ġsw": 5886,
      "åŃ¦èĢħ": 5887,
      "ä¼¼ä¹İ": 5888,
      "Ġpopular": 5889,
      "Sh": 5890,
      "æŃ²": 5891,
      "ĠMon": 5892,
      "æŃ£æĺ¯": 5893,
      "èŃī": 5894,
      "æ·»åĬł": 5895,
      "è¥¿çıŃ": 5896,
      "Ġproduc": 5897,
      "åĽ¾ä¹¦": 5898,
      "æĻĤéĸĵ": 5899,
      "Ġreturned": 5900,
      "çļĦå¤ĸ": 5901,
      "åį³åı¯": 5902,
      "è¥¿çıŃçīĻ": 5903,
      "ç¿¼": 5904,
      "åĴĸåķ¡": 5905,
      "Ġgreat": 5906,
      "åī²": 5907,
      "è¿Ļä¹Ī": 5908,
      "æĤ¨çļĦ": 5909,
      "è´«åĽ°": 5910,
      "Ġposition": 5911,
      "Ġfore": 5912,
      "æ°ĳåľĭ": 5913,
      "åĬłæĭ¿": 5914,
      "è¡¥åħħ": 5915,
      "å¤§å¹ħ": 5916,
      "æŀĿ": 5917,
      "å¾ĹåĪ°äºĨ": 5918,
      "æ·±åĪ»": 5919,
      "ning": 5920,
      "Ġstat": 5921,
      "ĠNor": 5922,
      "thern": 5923,
      "ãĤ": 5924,
      "å½°": 5925,
      "ä¸ĵéĹ¨": 5926,
      "æ§ĭ": 5927,
      "å®¶äºº": 5928,
      "å¸Ĥéķĩ": 5929,
      "æıŃ": 5930,
      "ç´ħ": 5931,
      "äºĶå¹´": 5932,
      "çĮ«": 5933,
      "çļĦæľįåĬ¡": 5934,
      "ç»ĦåĲĪ": 5935,
      "ä½Ĳ": 5936,
      "çĽĪ": 5937,
      "åı¸æ³ķ": 5938,
      "Ġperforman": 5939,
      "èĩ´åĬĽäºİ": 5940,
      "èĬ³": 5941,
      "iles": 5942,
      "åĪ«äºº": 5943,
      "èŀº": 5944,
      "Ġ000": 5945,
      "Ġfact": 5946,
      "æŀĦæĪĲ": 5947,
      "Ġvideo": 5948,
      "Ġfe": 5949,
      "æİ¥è¿ĳ": 5950,
      "Ġ24": 5951,
      "åĽŃåĮº": 5952,
      "åĻ¨çļĦ": 5953,
      "ĠChurch": 5954,
      "Ġ2014": 5955,
      "ying": 5956,
      "è®©æĪĳä»¬": 5957,
      "å¹¿åľº": 5958,
      "uel": 5959,
      "rest": 5960,
      "ä»¥åīį": 5961,
      "åĵģç§į": 5962,
      "è¥¿åĮĹ": 5963,
      "ä½¿çĶ¨çļĦ": 5964,
      "ĠCanada": 5965,
      "éĽĻ": 5966,
      "éĺ³åħī": 5967,
      "è´·æ¬¾": 5968,
      "ç½©": 5969,
      "çĩ¥": 5970,
      "æľĢå¾Į": 5971,
      "æĥħæĦŁ": 5972,
      "ä¿¡åı·": 5973,
      "å¥Ķ": 5974,
      "ä½ľä¸ļ": 5975,
      "Ġval": 5976,
      "outhern": 5977,
      "éķ¿çļĦ": 5978,
      "å°ıåŃ¦": 5979,
      "Ġtimes": 5980,
      "èĶ¡": 5981,
      "II": 5982,
      "æ´»æĢ§": 5983,
      "Ġ21": 5984,
      "çļĦè¦ģæ±Ĥ": 5985,
      "æ¯ģ": 5986,
      "Ġgrad": 5987,
      "Ġsimilar": 5988,
      "çĩķ": 5989,
      "ĠAc": 5990,
      "çłĸ": 5991,
      "æĪĳæł¡": 5992,
      "ĠRes": 5993,
      "çļĦæĥħåĨµä¸ĭ": 5994,
      "èĶ¬èıľ": 5995,
      "ĠLa": 5996,
      "èĪĴéĢĤ": 5997,
      "å¿§": 5998,
      "Ġstarted": 5999,
      "éĤĢè¯·": 6000,
      "äº©": 6001,
      "éªĳ": 6002,
      "Ġimport": 6003,
      "Ġaward": 6004,
      "åĩ¤": 6005,
      "ä¾¯": 6006,
      "æ¼Ĩ": 6007,
      "åĩĮ": 6008,
      "åŃ¦å®¶": 6009,
      "å¥ĳ": 6010,
      "ç»´çĶŁç´ł": 6011,
      "å½ķåıĸ": 6012,
      "æĬ«": 6013,
      "æ³µ": 6014,
      "åĪ©äºļ": 6015,
      "sequ": 6016,
      "è©±": 6017,
      "åŃ¦åİĨ": 6018,
      "èģĸ": 6019,
      "çĹħæĥħ": 6020,
      "ç§įæ¤į": 6021,
      "å¯¿åĳ½": 6022,
      "èµ¶": 6023,
      "é£ŁçĶ¨": 6024,
      "åģľæŃ¢": 6025,
      "èĢĢ": 6026,
      "ä¸¤ç§į": 6027,
      "å¯¹å¤ĸ": 6028,
      "reek": 6029,
      "åŃĿ": 6030,
      "useum": 6031,
      "æľīå¾Īå¤ļ": 6032,
      "çİ°æľī": 6033,
      "ç¥Ń": 6034,
      "æŃĮæĽ²": 6035,
      "Ġevery": 6036,
      "åİŁæĸĻ": 6037,
      "åĬłå¤§": 6038,
      "æ¨¡åŀĭ": 6039,
      "è¡Įä¸ļçļĦ": 6040,
      "ius": 6041,
      "Ã¼": 6042,
      "By": 6043,
      "gr": 6044,
      "ä¸Ģå¤©": 6045,
      "ories": 6046,
      "åĨ»": 6047,
      "ico": 6048,
      "åĿĳ": 6049,
      "Ġcommon": 6050,
      "Ġcreated": 6051,
      "æ»´": 6052,
      "æ£Ĵ": 6053,
      "è¢ĭ": 6054,
      "ago": 6055,
      "æķ´åĲĪ": 6056,
      "Ġattem": 6057,
      "èµ¢å¾Ĺ": 6058,
      "Ġarch": 6059,
      "Ġdescribed": 6060,
      "66": 6061,
      "åĭŁ": 6062,
      "çĶ·åŃĲ": 6063,
      "ä½ĽæķĻ": 6064,
      "èŁ": 6065,
      "å·¥åİĤ": 6066,
      "èİİ": 6067,
      "åŃ¦çĶŁçļĦ": 6068,
      "å±ĳ": 6069,
      "iment": 6070,
      "çªģçĦ¶": 6071,
      "åį±å®³": 6072,
      "ä¼Ļä¼´": 6073,
      ")ãĢģ": 6074,
      "æĺ¯ä¸į": 6075,
      "æĬĢæľ¯çļĦ": 6076,
      "æ¯įäº²": 6077,
      "Ġannounced": 6078,
      "err": 6079,
      "Ġfriend": 6080,
      "èĩªæ²»åĮº": 6081,
      "äº§æĿĥ": 6082,
      "å¸ĤåľºçļĦ": 6083,
      "çĨ±": 6084,
      "é»ĳèī²": 6085,
      "å·®å¼Ĥ": 6086,
      "è®¤åı¯": 6087,
      "éĶĪ": 6088,
      "ä¸ĩäºº": 6089,
      "è²»": 6090,
      "æĹħè¡Į": 6091,
      "ociety": 6092,
      "ocial": 6093,
      "åĮĹäº¬å¸Ĥ": 6094,
      "é«ĺè´¨éĩı": 6095,
      "é¼»": 6096,
      "Ġpromot": 6097,
      "Ġeast": 6098,
      "ville": 6099,
      "ä¸ĵä¸ļçļĦ": 6100,
      "é½¿": 6101,
      "è½¨éģĵ": 6102,
      "æĵĶä»»": 6103,
      "Ġtake": 6104,
      "ä»ĸäºº": 6105,
      "åħįè´¹": 6106,
      "ä¸ĢæĹ¦": 6107,
      "å®¶åħ·": 6108,
      "ention": 6109,
      "44": 6110,
      "éĿ¢åĲĳ": 6111,
      "æĬ¤çĲĨ": 6112,
      "é¢ĨåŁŁçļĦ": 6113,
      "å®ĩå®Ļ": 6114,
      "çļĦäºĭæĥħ": 6115,
      "Ġactiv": 6116,
      "æĦıåĳ³çĿĢ": 6117,
      "era": 6118,
      "ĠSe": 6119,
      "èį¯åĵģ": 6120,
      "çĶ³æĬ¥": 6121,
      "ç¹Ķ": 6122,
      "ĠAmerica": 6123,
      "èĬĿ": 6124,
      "è´µå·ŀ": 6125,
      "atch": 6126,
      "æĹ¶åĪ»": 6127,
      "çį¨": 6128,
      "Ġrelease": 6129,
      "Ġvarious": 6130,
      "å±¤": 6131,
      "åľĭéļĽ": 6132,
      "Ġ2015": 6133,
      "Ġintro": 6134,
      "ances": 6135,
      "äºĭé¡¹": 6136,
      "è´¯å½»": 6137,
      "Ġtechn": 6138,
      "ĠSm": 6139,
      "ä¿¡å¿ĥ": 6140,
      "æĺ¾èĳĹ": 6141,
      "Ġhowever": 6142,
      "âĢĿï¼Ī": 6143,
      "ĠRe": 6144,
      "çľŁçļĦ": 6145,
      "éļľç¢į": 6146,
      "oh": 6147,
      "å¥³åŃĲ": 6148,
      "è¿ĺè¦ģ": 6149,
      "äº¿ç¾İåħĥ": 6150,
      "ĠAct": 6151,
      "åºĶæĢ¥": 6152,
      "Ġguitar": 6153,
      "æ·±åº¦": 6154,
      "åĩºå¸Ń": 6155,
      "è¿ĺåı¯ä»¥": 6156,
      "å²Ń": 6157,
      "96": 6158,
      "Ġsent": 6159,
      "èĳ£äºĭéķ¿": 6160,
      "éĶ¡": 6161,
      "æĿĥåĪ©": 6162,
      "è¡Ģç®¡": 6163,
      "å®¶æĹı": 6164,
      "å°±åĥı": 6165,
      "çģĮ": 6166,
      "åħļçļĦ": 6167,
      "Ġengine": 6168,
      "85": 6169,
      "å®®": 6170,
      "ä¸ĬäºĨ": 6171,
      "omp": 6172,
      "ivil": 6173,
      "èĭ±éĽĦ": 6174,
      "Ġrecorded": 6175,
      "Ġdest": 6176,
      "åıĸæ¶Ī": 6177,
      "åĳ¨åĽ´": 6178,
      "ç½ĳä¸Ĭ": 6179,
      "Ġreview": 6180,
      "åį»": 6181,
      "æıĲåīį": 6182,
      "Ġbeh": 6183,
      "åıĤèĢĥ": 6184,
      "åłĨ": 6185,
      "å¢ĥåĨħ": 6186,
      "èħº": 6187,
      "è«ĭ": 6188,
      "åħ¨çľģ": 6189,
      "ä¸Ģä¸ªäºº": 6190,
      "Ġbeg": 6191,
      "ç«ĭåį³": 6192,
      "èĸª": 6193,
      "æ¢¦æĥ³": 6194,
      "Ġbroad": 6195,
      "zh": 6196,
      "ĠHist": 6197,
      "ä¸ľåĮĹ": 6198,
      "å¯¼æ¼Ķ": 6199,
      "ĠVal": 6200,
      "äººåĬĽ": 6201,
      "Ġmale": 6202,
      "è®¾æľī": 6203,
      "ĠNo": 6204,
      "èī²å½©": 6205,
      "ĠHol": 6206,
      "çĭĢ": 6207,
      "å¼ĺ": 6208,
      "ĠAs": 6209,
      "çĪµ": 6210,
      "æµģè¡Į": 6211,
      "Ġappeared": 6212,
      "Ġofficial": 6213,
      "acy": 6214,
      "æ£ĢéªĮ": 6215,
      "ä½ıæĪ¿": 6216,
      "åŃ£åº¦": 6217,
      "76": 6218,
      "iction": 6219,
      "åĽ½æľī": 6220,
      "æĹ¥çļĦ": 6221,
      "ĠChar": 6222,
      "åı¯èĥ½æĺ¯": 6223,
      "æĢĿç»´": 6224,
      "Ġconf": 6225,
      "ĠArt": 6226,
      "çļĦåİŁåĽł": 6227,
      "Ġcaus": 6228,
      "utes": 6229,
      "çķĻä¸ĭ": 6230,
      "æĪ¿åľ°äº§": 6231,
      "uce": 6232,
      "äºĭåĬ¡": 6233,
      "abor": 6234,
      "æĢ»ç»ĵ": 6235,
      "Ġhost": 6236,
      "Ġgl": 6237,
      "Ġant": 6238,
      "æŀĦå»º": 6239,
      "è¸ı": 6240,
      "Ġinternational": 6241,
      "éĻª": 6242,
      "èĢģå¹´": 6243,
      "è¯ĬæĸŃ": 6244,
      "å·¥åķĨ": 6245,
      "Ġclaim": 6246,
      "æīĢæľīçļĦ": 6247,
      "Ġprim": 6248,
      "åľ°åĮºçļĦ": 6249,
      "çĥĪçļĦ": 6250,
      "èĥĨ": 6251,
      "çħ§çīĩ": 6252,
      "è¢«åĳĬ": 6253,
      "æĿ¡ä¾ĭ": 6254,
      "éĢĤå½ĵ": 6255,
      "Ġprop": 6256,
      "çº¢èī²": 6257,
      "Ġusing": 6258,
      "éĻ¢éķ¿": 6259,
      "Ġgeneral": 6260,
      "ases": 6261,
      "ecut": 6262,
      "å¹¶æ²¡æľī": 6263,
      "åĬŀåŃ¦": 6264,
      "å¹¼åĦ¿": 6265,
      "raw": 6266,
      "ĠAustralian": 6267,
      "åĴĮå¹³": 6268,
      "Ġmy": 6269,
      "ç¼Ŀ": 6270,
      "ĠPer": 6271,
      "æĮĩæķ°": 6272,
      "å¹´åīį": 6273,
      "èĢĮä¸į": 6274,
      "ĠRecords": 6275,
      "78": 6276,
      "ä¸īåįģ": 6277,
      "Ġestablish": 6278,
      "æ¸Ĺ": 6279,
      "å¥Ī": 6280,
      "æĸ°å¢ŀ": 6281,
      "ä¸ļç»©": 6282,
      "æĢ»æĺ¯": 6283,
      "æķĪçĽĬ": 6284,
      "æ»¡æĦı": 6285,
      "ä¿±ä¹Ĳ": 6286,
      "ä½ľçĤº": 6287,
      "å°¼äºļ": 6288,
      "æĺŃ": 6289,
      "itor": 6290,
      "å®¡æŁ¥": 6291,
      "ä¿±ä¹Ĳéĥ¨": 6292,
      "atter": 6293,
      "åĴĮè°Ĳ": 6294,
      "å¹´åºķ": 6295,
      "ellow": 6296,
      "Ġred": 6297,
      "éĽĸ": 6298,
      "æ¶¯": 6299,
      "åºĶå¯¹": 6300,
      "è§ĤçĤ¹": 6301,
      "éĶĮ": 6302,
      "çļĦç¾İ": 6303,
      "åĽ½åĨħå¤ĸ": 6304,
      "ä¸»ä½ĵ": 6305,
      "éĺ¿å°Ķ": 6306,
      "John": 6307,
      "ä¸Ńæľī": 6308,
      "æī«": 6309,
      "Ġhig": 6310,
      "èĩªåĬ¨åĮĸ": 6311,
      "Ġjoined": 6312,
      "åĨĽäºĭ": 6313,
      "çĭĤ": 6314,
      "æĭįæĳĦ": 6315,
      "èľľ": 6316,
      "åĨľæ°ĳ": 6317,
      "Ġdevelopment": 6318,
      "ka": 6319,
      "Ġfull": 6320,
      "ä»ªåĻ¨": 6321,
      "çļĦæķħäºĭ": 6322,
      "å¤§éĻĨ": 6323,
      "Ġreal": 6324,
      "ĠDivision": 6325,
      "ĠHer": 6326,
      "ries": 6327,
      "åŁİåĮº": 6328,
      "å°Ŀè¯ķ": 6329,
      "ä¼ļåľ¨": 6330,
      "çŃĸçķ¥": 6331,
      "èį£èªī": 6332,
      "è£¡": 6333,
      "ä½ıå®ħ": 6334,
      "oor": 6335,
      "å©´": 6336,
      "Ã³": 6337,
      "2022": 6338,
      "èĤ¾": 6339,
      "ä¸ĭéĿ¢": 6340,
      "è¾ĥå¤§": 6341,
      "éİ®": 6342,
      "gy": 6343,
      "æľŁå¾ħ": 6344,
      "Ġpartic": 6345,
      "Ġspecial": 6346,
      "åħ±äº«": 6347,
      "Ġinfl": 6348,
      "èī°": 6349,
      "å¤Ħç½ļ": 6350,
      "è®¤å®ļ": 6351,
      "æİ§èĤ¡": 6352,
      "Ġcontinued": 6353,
      "åĬłæĭ¿å¤§": 6354,
      "åĲĪéĩĳ": 6355,
      "åĳ¨è¾¹": 6356,
      "é¢Ħæµĭ": 6357,
      "æŁ³": 6358,
      "å¸¦é¢Ĩ": 6359,
      "Ġcommunity": 6360,
      "PP": 6361,
      "æ±¡æ°´å¤ĦçĲĨ": 6362,
      "æĬĢå·§": 6363,
      "æıĲäº¤": 6364,
      "ots": 6365,
      "åĪ°çļĦ": 6366,
      "æĸ°æĬĢæľ¯": 6367,
      "ĠMe": 6368,
      "æĥħåĨµä¸ĭ": 6369,
      "è¯ļä¿¡": 6370,
      "Ġec": 6371,
      "æł¡éķ¿": 6372,
      "æĪĴ": 6373,
      "çīµ": 6374,
      "å®ļä½į": 6375,
      "ĠQue": 6376,
      "ĠAssociation": 6377,
      "çļĦèĥ½åĬĽ": 6378,
      "Ġhalf": 6379,
      "omm": 6380,
      "ĠPres": 6381,
      "éĶ»": 6382,
      "çĻ½çĻľé£İçļĦ": 6383,
      "åĵªäºĽ": 6384,
      "board": 6385,
      "ä¸Ģæµģ": 6386,
      "éĢĤçĶ¨äºİ": 6387,
      "å¤ļåħĥ": 6388,
      "åľ°éĵģ": 6389,
      "èĢĥæł¸": 6390,
      "å·¥èµĦ": 6391,
      "åľ°çĤ¹": 6392,
      "å·¨å¤§": 6393,
      "formation": 6394,
      "éĢļéģĵ": 6395,
      "é¬¼": 6396,
      "è¯±": 6397,
      "åįģä¸ī": 6398,
      "åİŁæľ¬": 6399,
      "çº¿è·¯": 6400,
      "è²¬": 6401,
      "åħ¬çĽĬ": 6402,
      "åħĦå¼Ł": 6403,
      "è¾£": 6404,
      "å¸ĪèĮĥ": 6405,
      "List": 6406,
      "å±¥è¡Į": 6407,
      "bor": 6408,
      "è¶³å¤Ł": 6409,
      "1999": 6410,
      "æĿĳæ°ĳ": 6411,
      "Ġsongs": 6412,
      "ming": 6413,
      "Ġwest": 6414,
      "ashington": 6415,
      "ä¸ĩåĲ¨": 6416,
      "çºł": 6417,
      "å¤§èµĽ": 6418,
      "ä¼ļåĳĺ": 6419,
      "åı¯æĮģç»Ń": 6420,
      "éĥ½ä¸į": 6421,
      "å±Ĥæ¬¡": 6422,
      "èĳĹåĲįçļĦ": 6423,
      "äºĴåĬ¨": 6424,
      "èħĲèļĢ": 6425,
      "ament": 6426,
      "anish": 6427,
      "ĠPort": 6428,
      "Ġmar": 6429,
      "ĠDep": 6430,
      "ç¤¾äº¤": 6431,
      "ĠParty": 6432,
      "Ġbrother": 6433,
      "æ¶ĤæĸĻ": 6434,
      "çºº": 6435,
      "ĠAg": 6436,
      "åľŁå£¤": 6437,
      "çŃīåľ°": 6438,
      "èī¦": 6439,
      "ript": 6440,
      "èĪªå¤©": 6441,
      "tt": 6442,
      "ä¼ļæľī": 6443,
      "æĥľ": 6444,
      "æ¥µ": 6445,
      "Ġwithout": 6446,
      "æ¡Į": 6447,
      "èĢĥå¯Ł": 6448,
      "iddle": 6449,
      "Mar": 6450,
      "åĽŀæĶ¶": 6451,
      "çĻ¼çı¾": 6452,
      "Ġstruct": 6453,
      "esc": 6454,
      "åķĨæłĩ": 6455,
      "ĠFrance": 6456,
      "olic": 6457,
      "ä¸ŃåĽ½çļĦ": 6458,
      "åį«æĺŁ": 6459,
      "æľīæķĪçļĦ": 6460,
      "obert": 6461,
      "æľĢå¥½": 6462,
      "ä¿ĿçķĻ": 6463,
      "Ġvol": 6464,
      "æĶ¯éĥ¨": 6465,
      "è²ł": 6466,
      "åĪ°è¾¾": 6467,
      "ĠHall": 6468,
      "ç§ĺä¹¦": 6469,
      "56": 6470,
      "ä¸»åĬŀ": 6471,
      "ä¹īåĬ¡": 6472,
      "çĥ¦": 6473,
      "å£°éŁ³": 6474,
      "minist": 6475,
      "åľºæĻ¯": 6476,
      "æĦŁæĥħ": 6477,
      "éłĲ": 6478,
      "1998": 6479,
      "åıĸå¾ĹäºĨ": 6480,
      "åŃŁ": 6481,
      "Ġgen": 6482,
      "å¾Įä¾Ĩ": 6483,
      "iron": 6484,
      "ç«ĭæ³ķ": 6485,
      "Ġfurther": 6486,
      "éĽ¾": 6487,
      "These": 6488,
      "ipp": 6489,
      "é¢Ħç®Ĺ": 6490,
      "æĸ°åĮº": 6491,
      "ç¢±": 6492,
      "Ġworked": 6493,
      "42": 6494,
      "ĠArmy": 6495,
      "ä¿¡çĶ¨": 6496,
      "åİŁçĲĨ": 6497,
      "åĪĻæĺ¯": 6498,
      "ç»Īäºİ": 6499,
      "åºĶçĶ¨äºİ": 6500,
      "èŃ¦å¯Ł": 6501,
      "èĪŀåı°": 6502,
      "hys": 6503,
      "åĬłéĢŁ": 6504,
      "å¦Ĥä¸ĭ": 6505,
      "ä¿Ŀåģ¥": 6506,
      "å¸ĤæĶ¿åºľ": 6507,
      "etwork": 6508,
      "ç»´æĮģ": 6509,
      "ä¸Ĭä¸ĭ": 6510,
      "ç³»çµ±": 6511,
      "Ġ1999": 6512,
      "ising": 6513,
      "åľ°éľĩ": 6514,
      "Ġconn": 6515,
      "å¸¦æĿ¥çļĦ": 6516,
      "wood": 6517,
      "With": 6518,
      "åĢ¡": 6519,
      "ournal": 6520,
      "æīĢè°ĵ": 6521,
      "Ġalthough": 6522,
      "Ġ1990": 6523,
      "å³¡": 6524,
      "AA": 6525,
      "ä¸ĺ": 6526,
      "Ġmatch": 6527,
      "çĪ¸": 6528,
      "Ġprocess": 6529,
      "åĩºçı¾": 6530,
      "Ġren": 6531,
      "Ġlim": 6532,
      "æľĢæĹ©": 6533,
      "æĽ´æĸ°": 6534,
      "æ©ĭ": 6535,
      "åħ¨å¸Ĥ": 6536,
      "æĽ´ä¸º": 6537,
      "ä¸ľåįĹ": 6538,
      "49": 6539,
      "æĪĪ": 6540,
      "Ġfind": 6541,
      "ä¸»æķĻ": 6542,
      "ä¸»è§Ĵ": 6543,
      "å°Ĩåħ¶": 6544,
      "æĿŃå·ŀ": 6545,
      "èµĭ": 6546,
      "aged": 6547,
      "æĻļä¸Ĭ": 6548,
      "å¿į": 6549,
      "æİĪæĿĥ": 6550,
      "å¤§éĩıçļĦ": 6551,
      "Ġten": 6552,
      "Ġdays": 6553,
      "å¹´èĩ³": 6554,
      "èį£èİ·": 6555,
      "ä¸Ģå¸¦": 6556,
      "èµł": 6557,
      "ĠBel": 6558,
      "ç²Ĺ": 6559,
      "150": 6560,
      "ä½İäºİ": 6561,
      "è®ºåĿĽ": 6562,
      "æ¿Ł": 6563,
      "ç¨±çĤº": 6564,
      "å°Ĭéĩį": 6565,
      "ä¸Ģä»£": 6566,
      "å·¥ç¨ĭå¸Ī": 6567,
      "å¤§å¤§": 6568,
      "ida": 6569,
      "ogn": 6570,
      "ĠCour": 6571,
      "ç¬¬ä¸Ģä¸ª": 6572,
      "å¾Īå¤§çļĦ": 6573,
      "oph": 6574,
      "Ġcomb": 6575,
      "å¾ĭå¸Ī": 6576,
      "å°Ĩäºİ": 6577,
      "èĳĹä½ľ": 6578,
      "åĲĮå¿Ĺ": 6579,
      "ç§ī": 6580,
      "omas": 6581,
      "ibr": 6582,
      "åºŁæ°´": 6583,
      "Ġcast": 6584,
      "Ġsee": 6585,
      "è¶ĬåįĹ": 6586,
      "ä¸²": 6587,
      "åı°åĮĹ": 6588,
      "åĽ½çļĦ": 6589,
      "ĠMor": 6590,
      "ç¢°": 6591,
      "77": 6592,
      "Ġweb": 6593,
      "ä¸įä¹ħ": 6594,
      "çĶŁåŃĺ": 6595,
      "èİ·å¾ĹäºĨ": 6596,
      "less": 6597,
      "ä»²": 6598,
      "ÃŃ": 6599,
      "è¸ª": 6600,
      "Ġneed": 6601,
      "åĿĬ": 6602,
      "Ġcompleted": 6603,
      "éĳ": 6604,
      "Ġlow": 6605,
      "Ġregion": 6606,
      "Ġprofessional": 6607,
      "Ġmilitary": 6608,
      "æĦıæĢĿ": 6609,
      "Ġï¼Į": 6610,
      "ä¸Ńæĸĩ": 6611,
      "è¥¿äºļ": 6612,
      "ells": 6613,
      "åĲĪæ³ķ": 6614,
      "1997": 6615,
      "é¡¹çĽ®çļĦ": 6616,
      "Cl": 6617,
      "86": 6618,
      "æ°¢": 6619,
      "æľŁéĸĵ": 6620,
      "è¡Ģåİĭ": 6621,
      "å±Ĩ": 6622,
      "å¯¹æĸ¹": 6623,
      "åĽ½å®¶çº§": 6624,
      "äºŃ": 6625,
      "éħįç½®": 6626,
      "play": 6627,
      "ç¤¾æľĥ": 6628,
      "berg": 6629,
      "ç¡®è®¤": 6630,
      "åĬī": 6631,
      "äº§éĩı": 6632,
      "ators": 6633,
      "ither": 6634,
      "Ġplaying": 6635,
      "å£³": 6636,
      "æµģåĬ¨": 6637,
      "åĽĽä¸ª": 6638,
      "Ġfem": 6639,
      "Ġweek": 6640,
      "æĢ»ç»Ł": 6641,
      "åħĭæĸ¯": 6642,
      "æµ©": 6643,
      "Ġconsidered": 6644,
      "åħ¬æ°ĳ": 6645,
      "çŃīäºº": 6646,
      "ç¦ģæŃ¢": 6647,
      "hic": 6648,
      "æĬķèµĦèĢħ": 6649,
      "åĬ²": 6650,
      "Ġnever": 6651,
      "Ġ2016": 6652,
      "è®²è¿°": 6653,
      "ĠQu": 6654,
      "æľºåĻ¨äºº": 6655,
      "åĲ¹": 6656,
      "Ġcoach": 6657,
      "å°±èĥ½": 6658,
      "æŁ´": 6659,
      "æĥ³æ³ķ": 6660,
      "Ġmult": 6661,
      "åĬĽåĴĮ": 6662,
      "æľĢä½İ": 6663,
      "å¤©ä¸ĭ": 6664,
      "ä¼ļçļĦ": 6665,
      "åŀĤ": 6666,
      "å¡ĺ": 6667,
      "åįłåľ°": 6668,
      "ĠHill": 6669,
      "ending": 6670,
      "é¥±": 6671,
      "Ġ23": 6672,
      "åĦ¿åŃĲ": 6673,
      "ĠDistrict": 6674,
      "éĺĢ": 6675,
      "Ġcontrol": 6676,
      "ointed": 6677,
      "èĮĥåĽ´åĨħ": 6678,
      "ivid": 6679,
      "è°ĥèĬĤ": 6680,
      "åĪĹè½¦": 6681,
      "ç¿»è¯ĳ": 6682,
      "ĠRed": 6683,
      "ä¸ľæĸ¹": 6684,
      "æ¸łéģĵ": 6685,
      "ari": 6686,
      "Ġdam": 6687,
      "æıĲéĨĴ": 6688,
      "åĲįåįķ": 6689,
      "Ġstar": 6690,
      "æĤŁ": 6691,
      "å·¨å¤§çļĦ": 6692,
      "ç¬¬åħŃ": 6693,
      "æŃ¤åīį": 6694,
      "åŃ¸æł¡": 6695,
      "èĭ±åľĭ": 6696,
      "Acc": 6697,
      "éģł": 6698,
      "åĬ¨ä½ľ": 6699,
      "ades": 6700,
      "èĥ¸": 6701,
      "çº¿ä¸Ĭ": 6702,
      "year": 6703,
      "å¹¶ä¸įæĺ¯": 6704,
      "ä¹¡æĿĳ": 6705,
      "ä¼¤å®³": 6706,
      "åŁĭ": 6707,
      "ĠRoyal": 6708,
      "èĢģäºº": 6709,
      "åĳ¨å¹´": 6710,
      "Ġrock": 6711,
      "å£°æĺİ": 6712,
      "From": 6713,
      "ä¸īè§Ĵ": 6714,
      "å¾Īéļ¾": 6715,
      "åıĤè§Ĥ": 6716,
      "åĲĬ": 6717,
      "åľ¨è¿Ļä¸ª": 6718,
      "æĸ°çĸĨ": 6719,
      "æıĲåĩºäºĨ": 6720,
      "Ġinterest": 6721,
      "åĬ©äºİ": 6722,
      "ç¡®è¯Ĭ": 6723,
      "åŃĺåĤ¨": 6724,
      "éķĢ": 6725,
      "æĺ¯ä»¥": 6726,
      "Ġcult": 6727,
      "æĢ§è´¨": 6728,
      "æĸ°èĥ½æºĲ": 6729,
      "åĢ«": 6730,
      "ope": 6731,
      "ç¢º": 6732,
      "æ©¡èĥ¶": 6733,
      "Ġcross": 6734,
      "åŁ·": 6735,
      "éģ£": 6736,
      "å¯ĵ": 6737,
      "Ġpoint": 6738,
      "ä¸ªæĢ§": 6739,
      "æĻ¯è§Ĥ": 6740,
      "Ġsound": 6741,
      "ĠRoman": 6742,
      "çĪ±çļĦ": 6743,
      "åľ°éĿ¢": 6744,
      "ç´§å¼ł": 6745,
      "éĶĻè¯¯": 6746,
      "å¯ĨåĪĩ": 6747,
      "å¥¥è¿Ĳ": 6748,
      "ha": 6749,
      "uf": 6750,
      "å¹´åľ¨": 6751,
      "å¤§çº¦": 6752,
      "Ġmarried": 6753,
      "ĠCouncil": 6754,
      "çĦĬ": 6755,
      "èĤª": 6756,
      "åĬłåĿ¡": 6757,
      "å§ľ": 6758,
      "åĽłèĢĮ": 6759,
      "åİ¨": 6760,
      "çĤĴ": 6761,
      "ĠRepublic": 6762,
      "97": 6763,
      "æľĢåĪĿ": 6764,
      "Ġright": 6765,
      "éŁ¦": 6766,
      "ours": 6767,
      "å¤ªå¹³": 6768,
      "å½¢æĪĲäºĨ": 6769,
      "Ġhimself": 6770,
      "Ġtrav": 6771,
      "Ġsug": 6772,
      "åŁºçĿ£": 6773,
      "Ġchurch": 6774,
      "å¤§æķ°æį®": 6775,
      "ä¿¡æģ¯åĮĸ": 6776,
      "åĨ²åĩ»": 6777,
      "aign": 6778,
      "å½±éŁ¿": 6779,
      "åĤ¬": 6780,
      "Ġmid": 6781,
      "æµħ": 6782,
      "èĦĤèĤª": 6783,
      "Ġ50": 6784,
      "ä¸įèī¯": 6785,
      "é£¾": 6786,
      "æ·Ģ": 6787,
      "å¾Īå¿«": 6788,
      "çĨĬ": 6789,
      "58": 6790,
      "ray": 6791,
      "lear": 6792,
      "éĥ¨ä»¶": 6793,
      "å»³": 6794,
      "çĹħäºº": 6795,
      "çĬ¹": 6796,
      "æĳĺ": 6797,
      "ä»¥ä¸ĬçļĦ": 6798,
      "é£ŀæľº": 6799,
      "æ»ĭ": 6800,
      "è¾ĥä¸º": 6801,
      "åĮĢ": 6802,
      "åĲĮä¸Ģ": 6803,
      "çĥ¤": 6804,
      "ably": 6805,
      "çļĦéľĢæ±Ĥ": 6806,
      "åĩĢåĮĸ": 6807,
      "craft": 6808,
      "ç¨Ģ": 6809,
      "éĩĩè®¿": 6810,
      "Ġpolitical": 6811,
      "å½ĵä¸Ń": 6812,
      "rick": 6813,
      "ological": 6814,
      "Ġnovel": 6815,
      "itz": 6816,
      "ä¼łæī¿": 6817,
      "Ġ22": 6818,
      "å¼ķè¿Ľ": 6819,
      "æ¡Ĩ": 6820,
      "èĮ¨": 6821,
      "è½¬åıĺ": 6822,
      "Ġdirector": 6823,
      "go": 6824,
      "æĻ°": 6825,
      "æīĢéľĢ": 6826,
      "åĭĥ": 6827,
      "Ġ1980": 6828,
      "è¿Ł": 6829,
      "çĶµæ°Ķ": 6830,
      "èµĦè´¨": 6831,
      "çĻ½èī²": 6832,
      "æ³Į": 6833,
      "used": 6834,
      "åĲĦçº§": 6835,
      "Ġareas": 6836,
      "æħĭ": 6837,
      "çĽ¸åħ³çļĦ": 6838,
      "å¾Īå¤ļäºº": 6839,
      "æĦ¿æĦı": 6840,
      "åĪ¤æĸŃ": 6841,
      "æ·®": 6842,
      "åĽĽå¹´": 6843,
      "New": 6844,
      "å§¿": 6845,
      "ĠRich": 6846,
      "ĠJames": 6847,
      "éĢīæīĭ": 6848,
      "å¤§åĬĽ": 6849,
      "éŃĤ": 6850,
      "Tr": 6851,
      "ä¹¾": 6852,
      "Ġlost": 6853,
      "éĥ½èĥ½": 6854,
      "ishing": 6855,
      "è½¬ç§»": 6856,
      "åį³å°Ĩ": 6857,
      "çĸ«æĥħéĺ²æİ§": 6858,
      "èĲ¥éĶĢ": 6859,
      "çŃ¾è®¢": 6860,
      "æĹ¥ä¸ĭåįĪ": 6861,
      "Ġview": 6862,
      "Ġ26": 6863,
      "éĹ®é¢ĺçļĦ": 6864,
      "1996": 6865,
      "åŁºç¡Ģè®¾æĸ½": 6866,
      "odes": 6867,
      "ype": 6868,
      "ä¸Ģç³»åĪĹ": 6869,
      "roy": 6870,
      "elt": 6871,
      "ĠMusic": 6872,
      "ĠDavid": 6873,
      "æĶ¶çĽĬ": 6874,
      "One": 6875,
      "43": 6876,
      "1990": 6877,
      "éļ§": 6878,
      "æľĢå¥½çļĦ": 6879,
      "aughter": 6880,
      "é¡¯": 6881,
      "west": 6882,
      "è¯ŀ": 6883,
      "ç¨į": 6884,
      "ĠWashington": 6885,
      "æ¯ıä¸Ģ": 6886,
      "åĪ¶éĢłä¸ļ": 6887,
      "ography": 6888,
      "çĢ": 6889,
      "rian": 6890,
      "éĿĴæĺ¥": 6891,
      "Ġround": 6892,
      "arent": 6893,
      "Ġdebut": 6894,
      "æ°ĽåĽ´": 6895,
      "iber": 6896,
      "å§»": 6897,
      "åľºæ¯ĶèµĽ": 6898,
      "çħ®": 6899,
      "æ¹ĺ": 6900,
      "æľ´": 6901,
      "ç¯ī": 6902,
      "ĠBlack": 6903,
      "CO": 6904,
      "çĽĨ": 6905,
      "çī¹æĢ§": 6906,
      "æĤ¦": 6907,
      "æ¯ıä¸ªäºº": 6908,
      "Ġsqu": 6909,
      "ä½ľå®¶": 6910,
      "éĽ²": 6911,
      "å¤įåĲĪ": 6912,
      "å¤§åŃ¦çĶŁ": 6913,
      "éŀĭ": 6914,
      "åĲĲ": 6915,
      "å¯¹æīĭ": 6916,
      "æģ°": 6917,
      "æĴĴ": 6918,
      "All": 6919,
      "è®©æĪĳ": 6920,
      "å¯«": 6921,
      "åīª": 6922,
      "olution": 6923,
      "æ»¿": 6924,
      "æİ¡": 6925,
      "æ±ģ": 6926,
      "Ġgood": 6927,
      "èĭ¹": 6928,
      "éĿĴå²Ľ": 6929,
      "æµ¸": 6930,
      "éĹ´çļĦ": 6931,
      "Ġleague": 6932,
      "åĩłå¹´": 6933,
      "Ġworks": 6934,
      "çļĦåİĨåı²": 6935,
      "Ġfire": 6936,
      "anded": 6937,
      "å·²æľī": 6938,
      "ä¿®æĶ¹": 6939,
      "æĭĵå±ķ": 6940,
      "Ġget": 6941,
      "äººæ°ĳæ³ķéĻ¢": 6942,
      "çºªå½ķ": 6943,
      "ĠIsland": 6944,
      "Ġfail": 6945,
      "å¤§ä¼Ĺ": 6946,
      "ä¸¤äºº": 6947,
      "å§Ķæīĺ": 6948,
      "æĪĺæĸĹ": 6949,
      "æµĨ": 6950,
      "åıĳçļĦ": 6951,
      "ä¸īå¤§": 6952,
      "èİ²": 6953,
      "stitute": 6954,
      "Ġparticular": 6955,
      "01": 6956,
      "æ¸¬": 6957,
      "åĳ¨æľŁ": 6958,
      "æļ¨": 6959,
      "åĲĮæĹ¶ä¹Ł": 6960,
      "è¡Ģæ¶²": 6961,
      "è¼ī": 6962,
      "Ġdeveloped": 6963,
      "å¹¿ä¸ľçľģ": 6964,
      "Ġbody": 6965,
      "ĠGeorge": 6966,
      "æĹ¶å°ļ": 6967,
      "æĭĸ": 6968,
      "é«ĺç«¯": 6969,
      "åī¯ä¸»ä»»": 6970,
      "è«¾": 6971,
      "æ·ĺ": 6972,
      "æĶ¾å¼ĥ": 6973,
      "è¯ģæį®": 6974,
      "æĪĲç«ĭäºİ": 6975,
      "çĨŁæĤī": 6976,
      "ĠJapanese": 6977,
      "ij": 6978,
      "}-": 6979,
      "å¸Ĥå§Ķ": 6980,
      "å½¢åĬ¿": 6981,
      "ĠVir": 6982,
      "åĩŃåĢŁ": 6983,
      "åıĳå°Ħ": 6984,
      "åı¯æĺ¯": 6985,
      "éĽ£": 6986,
      "ĠJack": 6987,
      "åĭ¢": 6988,
      "aves": 6989,
      "æ°¸è¿ľ": 6990,
      "åĽ½å¤ĸ": 6991,
      "ä¹ĭä¸ĭ": 6992,
      "éĿĴå°ĳå¹´": 6993,
      "hers": 6994,
      "ĠEm": 6995,
      "å¨ĺ": 6996,
      "Ġformed": 6997,
      "de": 6998,
      "ports": 6999,
      "-{": 7000,
      "æĺ¨": 7001,
      "æĸ°åĬłåĿ¡": 7002,
      "Ġless": 7003,
      "åĥħ": 7004,
      "Ġ1998": 7005,
      "çĽ£": 7006,
      "ĠMy": 7007,
      "æĶ¹è¿Ľ": 7008,
      "èĸ©": 7009,
      "Ġå¹´": 7010,
      "Ġoffer": 7011,
      "æĬ¼": 7012,
      "ç§įç±»": 7013,
      "è£ħä¿®": 7014,
      "57": 7015,
      "è®°å¿Ĩ": 7016,
      "ship": 7017,
      "Ġinf": 7018,
      "Ġpri": 7019,
      "æĤ£èĢħçļĦ": 7020,
      "æī®": 7021,
      "èº«ä¸Ĭ": 7022,
      "æĪĲä¸ºäºĨ": 7023,
      "Ġvot": 7024,
      "Ġsigned": 7025,
      "åĿª": 7026,
      "è½¬åĮĸ": 7027,
      "è¯ĨåĪ«": 7028,
      "ç§°åı·": 7029,
      "å®ŀéĻħä¸Ĭ": 7030,
      "æī¶è´«": 7031,
      "åĬłçĽŁ": 7032,
      "æ¯ıä¸Ģä¸ª": 7033,
      "site": 7034,
      "ĠClub": 7035,
      "æĬ¥èĢĥ": 7036,
      "äºĪä»¥": 7037,
      "'t": 7038,
      "èĭ¹æŀľ": 7039,
      "çļĦä¸ĵä¸ļ": 7040,
      "Ġschools": 7041,
      "ĠCompany": 7042,
      "IP": 7043,
      "ĠBill": 7044,
      "èīĩ": 7045,
      "çī©åĵģ": 7046,
      "åĲĪéĢĤ": 7047,
      "æħİ": 7048,
      "æ¤Ĵ": 7049,
      "ensive": 7050,
      "ĠKingdom": 7051,
      "Ġhon": 7052,
      "å¹¿è¥¿": 7053,
      "æĺŁæľŁ": 7054,
      "é¹¿": 7055,
      "Ġperformed": 7056,
      "çĶº": 7057,
      "é¼ł": 7058,
      "Ġsurv": 7059,
      "ĠEuropean": 7060,
      "åħģè®¸": 7061,
      "Ġtro": 7062,
      "ä¸Ģæĺ¯": 7063,
      "èĢķ": 7064,
      "å½Ń": 7065,
      "Ġmiss": 7066,
      "oo": 7067,
      "Ġident": 7068,
      "çļĦè®¾è®¡": 7069,
      "å»Ĭ": 7070,
      "åĲĪçī©": 7071,
      "æŁ¯": 7072,
      "ä¿Ĥ": 7073,
      "ĠPaul": 7074,
      "è¢«ç§°ä¸º": 7075,
      "åĨ¶": 7076,
      "éĿ¢è¯ķ": 7077,
      "ç»ĨèĬĤ": 7078,
      "While": 7079,
      "éĢĢä¼ĳ": 7080,
      "éģĬæĪ²": 7081,
      "ym": 7082,
      "å¸¸å¸¸": 7083,
      "æĵ¦": 7084,
      "ĠAngel": 7085,
      "åĬŁçİĩ": 7086,
      "600": 7087,
      "ä»¥ä¸º": 7088,
      "åŃ©åŃĲä»¬": 7089,
      "now": 7090,
      "Ġaver": 7091,
      "å¼¥": 7092,
      "èĭ±æĸĩ": 7093,
      "Ġmaking": 7094,
      "æĹ¥ä¸ĬåįĪ": 7095,
      "çĶŁæ´»çļĦ": 7096,
      "ĠGovern": 7097,
      "aper": 7098,
      "åĪĩå®ŀ": 7099,
      "ĠIndia": 7100,
      "çļĦä¸ĢäºĽ": 7101,
      "åĤ·": 7102,
      "å¤ļæł·": 7103,
      "æĤł": 7104,
      "èµ°åĲĳ": 7105,
      "å¯Ĩåº¦": 7106,
      "Ad": 7107,
      "anted": 7108,
      "Ġcoll": 7109,
      "å½Ī": 7110,
      "å¯¹æŃ¤": 7111,
      "ĠAnt": 7112,
      "ĠMal": 7113,
      "å¼ķé¢Ĩ": 7114,
      "æī¿è¯º": 7115,
      "eball": 7116,
      "äº§çĶŁçļĦ": 7117,
      "çļĩå¸Ŀ": 7118,
      "æ·±åĮĸ": 7119,
      "Ġanim": 7120,
      "å¤§å°ı": 7121,
      "åĬłçĥŃ": 7122,
      "åįıåĬ©": 7123,
      "ĠBay": 7124,
      "cy": 7125,
      "çļĦå¥³": 7126,
      "å®¡æł¸": 7127,
      "Ġins": 7128,
      "åĽ¢ä½ĵ": 7129,
      "è§Ħå®ļçļĦ": 7130,
      "éĢļè®¯": 7131,
      "Ġ1996": 7132,
      "å°½éĩı": 7133,
      "èĥº": 7134,
      "æ¸ħæĻ°": 7135,
      "å¤ıåŃ£": 7136,
      "å¸ĪçĶŁ": 7137,
      "People": 7138,
      "éĢĿ": 7139,
      "çĻ¼çĶŁ": 7140,
      "Ġelection": 7141,
      "Ġsuccessful": 7142,
      "çĭ¬çī¹çļĦ": 7143,
      "Ġvocals": 7144,
      "burg": 7145,
      "oice": 7146,
      "Ġgun": 7147,
      "Ġgave": 7148,
      "èµĽäºĭ": 7149,
      "åĽŀçŃĶ": 7150,
      "æĺ¯ä¸Ģå®¶": 7151,
      "ĠUnion": 7152,
      "1995": 7153,
      "ä¸Ģçº§": 7154,
      "çĶ¨äºº": 7155,
      "ston": 7156,
      "ĠGeneral": 7157,
      "åŁºå±Ĥ": 7158,
      "CC": 7159,
      "ule": 7160,
      "åıī": 7161,
      "Ġwife": 7162,
      "Ã¶": 7163,
      "çļĦçİ¯å¢ĥ": 7164,
      "ä¸įçŁ¥éģĵ": 7165,
      "ocr": 7166,
      "ç§ĳåŃ¦å®¶": 7167,
      "ux": 7168,
      "éĥ¨éĺŁ": 7169,
      "Ġlive": 7170,
      "æ»©": 7171,
      "alls": 7172,
      "ĠGermany": 7173,
      "åĵ²åŃ¦": 7174,
      "åľ¨è¿ĻéĩĮ": 7175,
      "äººåĴĮ": 7176,
      "åĪĨç¦»": 7177,
      "Ġlight": 7178,
      "unk": 7179,
      "According": 7180,
      "çĶŁæ¶¯": 7181,
      "ä¹ĭéĸĵ": 7182,
      "Ġexamp": 7183,
      "çº·çº·": 7184,
      "å¸¸è§ģçļĦ": 7185,
      "Ġreported": 7186,
      "å¤§æ°Ķ": 7187,
      "imately": 7188,
      "ĠTex": 7189,
      "åĲĪæĪĲ": 7190,
      "ä¸ĬåįĬå¹´": 7191,
      "æºĸ": 7192,
      "èĳ¬": 7193,
      "éĺ²æ²»": 7194,
      "è®¼": 7195,
      "æľīæĹ¶": 7196,
      "æī¿åĮħ": 7197,
      "ĠCanadian": 7198,
      "ination": 7199,
      "âĢķ": 7200,
      "åı¯è§ģ": 7201,
      "ä¸»æ¼Ķ": 7202,
      "isted": 7203,
      "ĠSing": 7204,
      "idence": 7205,
      "Ġ28": 7206,
      "é«ĺéĢŁåħ¬è·¯": 7207,
      "Ġtour": 7208,
      "çĶ¨æĿ¥": 7209,
      "æº«": 7210,
      "å¹²çĩ¥": 7211,
      "Ġbelie": 7212,
      "Ġhelp": 7213,
      "ä¸¤å¹´": 7214,
      "éĤ£ä¸ª": 7215,
      "åį°åĪ·": 7216,
      "æİĪäºĪ": 7217,
      "éĽ¶åĶ®": 7218,
      "ç¬¬ä¸ĥ": 7219,
      "Ġ1970": 7220,
      "ç¼ĸåĪ¶": 7221,
      "åı¯ä»¥éĢļè¿ĩ": 7222,
      "çĽĹ": 7223,
      "wh": 7224,
      "ĠOff": 7225,
      "Ġmeet": 7226,
      "åįģåħ«": 7227,
      "lic": 7228,
      "ouis": 7229,
      "çĤºäºĨ": 7230,
      "å¦»åŃĲ": 7231,
      "ED": 7232,
      "Sp": 7233,
      "ona": 7234,
      "alth": 7235,
      "Ġmix": 7236,
      "åħ¨åĬĽ": 7237,
      "ä¼ĺçĤ¹": 7238,
      "åıĤèµĽ": 7239,
      "æĿĤå¿Ĺ": 7240,
      "èĽĭçĻ½è´¨": 7241,
      "éķ¿æ±Ł": 7242,
      "ump": 7243,
      "å²³": 7244,
      "åīĬ": 7245,
      "å¾®ä¿¡": 7246,
      "èĥľåĪ©": 7247,
      "æĸ¤": 7248,
      "rey": 7249,
      "çµĦç¹Ķ": 7250,
      "éĹª": 7251,
      "åĪĨéħį": 7252,
      "èµĶ": 7253,
      "çĶŁæĪĲ": 7254,
      "è¾Ĳ": 7255,
      "çī©èģĶç½ĳ": 7256,
      "Ġradio": 7257,
      "view": 7258,
      "èīĺ": 7259,
      "ĠPal": 7260,
      "éļ§éģĵ": 7261,
      "iers": 7262,
      "çļĦç¬¬ä¸Ģ": 7263,
      "æľªæĿ¥çļĦ": 7264,
      "itive": 7265,
      "è¾²": 7266,
      "ĠBest": 7267,
      "ä¿ĿåŃĺ": 7268,
      "å¸¦åĬ¨": 7269,
      "41": 7270,
      "èĮĤ": 7271,
      "é»Ħéĩĳ": 7272,
      "UTC": 7273,
      "most": 7274,
      "Ġtest": 7275,
      "ä¸Ĭæ¶¨": 7276,
      "æ¼Ĥ": 7277,
      "åĪĽæĦı": 7278,
      "åħ¬åħĥ": 7279,
      "çīĪæľ¬": 7280,
      "Ġground": 7281,
      "å¾Īå¥½çļĦ": 7282,
      "Ġpract": 7283,
      "oul": 7284,
      "çŃīçº§": 7285,
      "oints": 7286,
      "é¢Ī": 7287,
      "ĠTown": 7288,
      "ä¸ĵç§ĳ": 7289,
      "èįĴ": 7290,
      "çĮĽ": 7291,
      "å¼Ĥå¸¸": 7292,
      "ä¸»ç®¡éĥ¨éĹ¨": 7293,
      "igned": 7294,
      "Ġsignific": 7295,
      "äººå¤§": 7296,
      "roll": 7297,
      "æ¾³å¤§åĪ©": 7298,
      "AI": 7299,
      "men": 7300,
      "ĠGreat": 7301,
      "åıĺæĪĲ": 7302,
      "éĺ²æĬ¤": 7303,
      "Ġindust": 7304,
      "Ġconstruction": 7305,
      "åħ¶æ¬¡": 7306,
      "Ġmonths": 7307,
      "Ġtoget": 7308,
      "çĸ¼": 7309,
      "thlet": 7310,
      "éŃ¯": 7311,
      "éģ¸èĪī": 7312,
      "éĩĬæĶ¾": 7313,
      "Ġtogether": 7314,
      "æ¶Į": 7315,
      "Ġshould": 7316,
      "ä¾¿åĪ©": 7317,
      "Ġcontract": 7318,
      "ĠBas": 7319,
      "æ¸©æļĸ": 7320,
      "Ġ40": 7321,
      "è¯īè®¼": 7322,
      "eep": 7323,
      "uz": 7324,
      "æ¯Ķè³½": 7325,
      "Ġvict": 7326,
      "é©±åĬ¨": 7327,
      "Ġdi": 7328,
      "éħ¶": 7329,
      "æĶ»åĩ»": 7330,
      "ĠBer": 7331,
      "Ġ27": 7332,
      "ĠGroup": 7333,
      "çĿĽ": 7334,
      "æķ´çĲĨ": 7335,
      "è¾ĥé«ĺ": 7336,
      "ani": 7337,
      "å¸ħ": 7338,
      "ä¸įç®¡": 7339,
      "ä¹Łè¦ģ": 7340,
      "éľ¸": 7341,
      "Ġparticip": 7342,
      "éĢıéľ²": 7343,
      "åľ¨ä¸Ģ": 7344,
      "æ°´çļĦ": 7345,
      "ĠRev": 7346,
      "æķ°æį®æĺ¾ç¤º": 7347,
      "ä¸Ĭæµ·å¸Ĥ": 7348,
      "hib": 7349,
      "å¹½": 7350,
      "èĩŃ": 7351,
      "æĢĴ": 7352,
      "ili": 7353,
      "å¤ĸäº¤": 7354,
      "ç¦®": 7355,
      "çĻ¾å§ĵ": 7356,
      "68": 7357,
      "æľ¬äºº": 7358,
      "ä¼ĺèī¯": 7359,
      "åĩºåıĳ": 7360,
      "æħ°": 7361,
      "è¾¨": 7362,
      "åĭĺ": 7363,
      "Pro": 7364,
      "itch": 7365,
      "çļĦé¦ĸ": 7366,
      "çļĦçĶŁäº§": 7367,
      "æĭ¨": 7368,
      "ç©į": 7369,
      "éĥ½è¦ģ": 7370,
      "Ġselect": 7371,
      "æĿĥçĽĬ": 7372,
      "Ġevents": 7373,
      "äºĭä¸ļåįķä½į": 7374,
      "åı¦ä¸Ģæĸ¹éĿ¢": 7375,
      "åıĻ": 7376,
      "leg": 7377,
      "Ġrank": 7378,
      "æļĳ": 7379,
      "åĩºçİ°äºĨ": 7380,
      "ockey": 7381,
      "ä¸įéĶĻ": 7382,
      "è¡ĮæĺŁ": 7383,
      "æĹħå®¢": 7384,
      "æī§æ³ķ": 7385,
      "ylv": 7386,
      "Ġattempt": 7387,
      "Ġinflu": 7388,
      "ĠPenn": 7389,
      "Although": 7390,
      "Ġdiv": 7391,
      "irth": 7392,
      "ĠTV": 7393,
      "ĠStud": 7394,
      "ä»¥ä¸ĭç®Ģç§°": 7395,
      "æĸľ": 7396,
      "ĠUK": 7397,
      "èħ°": 7398,
      "èħ¿": 7399,
      "Ġcapt": 7400,
      "æĢ»éĥ¨": 7401,
      "ç¼ĵè§£": 7402,
      "Ġtradition": 7403,
      "iting": 7404,
      "èģĬ": 7405,
      "Ġeight": 7406,
      "åħ»èĢģ": 7407,
      "ä¼łç»ŁçļĦ": 7408,
      "é«ĺéĵģ": 7409,
      "åĲįç§°": 7410,
      "Ġbecom": 7411,
      "éĶ»çĤ¼": 7412,
      "Ġwind": 7413,
      "åľ°è´¨": 7414,
      "æĺİæĺŁ": 7415,
      "çº¿çļĦ": 7416,
      "åİļçļĦ": 7417,
      "å¹¾": 7418,
      "atri": 7419,
      "å©ļå§»": 7420,
      "Ġstrong": 7421,
      "å¾Ĺä»¥": 7422,
      "çĸ²": 7423,
      "åŁİéķĩ": 7424,
      "è¹Ī": 7425,
      "Ġoriginally": 7426,
      "usical": 7427,
      "éłĵ": 7428,
      "anding": 7429,
      "ç¤¾ä¼ļä¸»ä¹ī": 7430,
      "ĠMag": 7431,
      "è´¢äº§": 7432,
      "éĽĸçĦ¶": 7433,
      "Ġaway": 7434,
      "ï¼īï¼Ľ": 7435,
      "æľ¬ç«Ļ": 7436,
      "ä¹¦æ³ķ": 7437,
      "å¸¦çĿĢ": 7438,
      "Ġmater": 7439,
      "éĴĻ": 7440,
      "Ġ1997": 7441,
      "Ġdoes": 7442,
      "éĥ½å¸Ĥ": 7443,
      "ketball": 7444,
      "èģŀ": 7445,
      "åĲĦèĩª": 7446,
      "Ġchart": 7447,
      "èŃĺ": 7448,
      "64": 7449,
      "Ġ||": 7450,
      "aker": 7451,
      "Ġgrow": 7452,
      "å§Ķåĵ¡æľĥ": 7453,
      "è°¨": 7454,
      "åľ¨å®¶": 7455,
      "æľªèĥ½": 7456,
      "azine": 7457,
      "Ġfounded": 7458,
      "æĢ§æł¼": 7459,
      "åĲĦå¤§": 7460,
      "è§Ĩè§ī": 7461,
      "raz": 7462,
      "åĲĮåŃ¦ä»¬": 7463,
      "92": 7464,
      "æľµ": 7465,
      "åĬĽåº¦": 7466,
      "èĪĬ": 7467,
      "ç²¾å½©": 7468,
      "åŁ¹èĤ²": 7469,
      "ä¼ĳéĹ²": 7470,
      "Ġsuggest": 7471,
      "ç½Ĳ": 7472,
      "çļĦåŁºæľ¬": 7473,
      "Ġhold": 7474,
      "ä»ĸè¯´": 7475,
      "è¨Ńè¨Ī": 7476,
      "èĥģ": 7477,
      "è¿Ŀåıį": 7478,
      "here": 7479,
      "ä¸ľéĥ¨": 7480,
      "ought": 7481,
      "ç«ŀèµĽ": 7482,
      "ertain": 7483,
      "ician": 7484,
      "å°±æľī": 7485,
      "çĥŃæ°´": 7486,
      "èĹ¤": 7487,
      "éŃļ": 7488,
      "å»ºç«ĭäºĨ": 7489,
      "ĠMount": 7490,
      "Ġonce": 7491,
      "ceed": 7492,
      "è¥¿æĸ¹": 7493,
      "ç¼Ĩ": 7494,
      "éĴ»": 7495,
      "äººä¸º": 7496,
      "ĠCap": 7497,
      "è¿ĳæľŁ": 7498,
      "æĳ¸": 7499,
      "ference": 7500,
      "ĠCenter": 7501,
      "ĠAcadem": 7502,
      "ĠçļĦ": 7503,
      "åħ³å¿ĥ": 7504,
      "ä¸ĵæ³¨": 7505,
      "æľįè£ħ": 7506,
      "Ġcond": 7507,
      "Ġimportant": 7508,
      "02": 7509,
      "éĿŀæ³ķ": 7510,
      "è´§å¸ģ": 7511,
      "éĢıè¿ĩ": 7512,
      "Ġfollowed": 7513,
      "æ³Ĭ": 7514,
      "ĠCath": 7515,
      "ĠMet": 7516,
      "ĠMex": 7517,
      "ects": 7518,
      "æĴ°": 7519,
      "Ġworking": 7520,
      "CE": 7521,
      "æŀª": 7522,
      "éħ·": 7523,
      "IT": 7524,
      "çŁĽ": 7525,
      "åı¸ä»¤": 7526,
      "åĥ¹": 7527,
      "ĠÃ": 7528,
      "è¿Ľå±ķ": 7529,
      "ailable": 7530,
      "çļĦå®īåħ¨": 7531,
      "æ¸ħæ´Ĺ": 7532,
      "1994": 7533,
      "ecutive": 7534,
      "åıĳåĩº": 7535,
      "å£ĵ": 7536,
      "åĮ»å¸Ī": 7537,
      "æ··åĩĿ": 7538,
      "å¥ĭæĸĹ": 7539,
      "51": 7540,
      "67": 7541,
      "Ġet": 7542,
      "ä¿¡ä»»": 7543,
      "æ»ļ": 7544,
      "èĲ¥éĢł": 7545,
      "âĳ": 7546,
      "éĥ¨ä½į": 7547,
      "ä¹ĭè·¯": 7548,
      "éħ±": 7549,
      "è§Ħå¾ĭ": 7550,
      "ç»ıæµİåıĳå±ķ": 7551,
      "è¾Ī": 7552,
      "ĠMary": 7553,
      "è¿ĺä¼ļ": 7554,
      "Ġproper": 7555,
      "ä¼łéĢĴ": 7556,
      "elling": 7557,
      "é¤Ĳåİħ": 7558,
      "ä¼ĳæģ¯": 7559,
      "çĶµåĻ¨": 7560,
      "Ġteams": 7561,
      "Ġstyle": 7562,
      "è´¤": 7563,
      "æ¸Ķ": 7564,
      "åį±æľº": 7565,
      "MA": 7566,
      "ma": 7567,
      "åģ´": 7568,
      "åİĺ": 7569,
      "æ°ĳéĹ´": 7570,
      "æ´»åĭķ": 7571,
      "å¾Īå¥½": 7572,
      "æ°Ķè±¡": 7573,
      "åĻª": 7574,
      "çĨĻ": 7575,
      "Ġacross": 7576,
      "ä¸Ī": 7577,
      "ĠMad": 7578,
      "unn": 7579,
      "åĽ¢ç»ĵ": 7580,
      "çĥŃæĥħ": 7581,
      "æ¶ĪåĮĸ": 7582,
      "åķıé¡Į": 7583,
      "ements": 7584,
      "Ġtaken": 7585,
      "åĪĨæ³Į": 7586,
      "1992": 7587,
      "Ġ1995": 7588,
      "è¾Ĳå°Ħ": 7589,
      "hest": 7590,
      "Ġremained": 7591,
      "ele": 7592,
      "Ġpress": 7593,
      "æ±Łèĭıçľģ": 7594,
      "ores": 7595,
      "å°±è¦ģ": 7596,
      "ows": 7597,
      "ç¡®å®ŀ": 7598,
      "å®ŀçİ°äºĨ": 7599,
      "Ġrelations": 7600,
      "æĸ·": 7601,
      "å¤§å¸Ī": 7602,
      "åĲĪå¹¶": 7603,
      "åķĬ": 7604,
      "æĳĩ": 7605,
      "uation": 7606,
      "æĺİçļĦ": 7607,
      "èİ·åıĸ": 7608,
      "çĶ·æĢ§": 7609,
      "èĵĦ": 7610,
      "çİ°ä»£åĮĸ": 7611,
      "back": 7612,
      "Ġtyp": 7613,
      "çĶ¨æ°´": 7614,
      "çĶ¨éĢĶ": 7615,
      "çĽĳçĿ£ç®¡çĲĨ": 7616,
      "æĪ¶": 7617,
      "Ġbar": 7618,
      "Ġhous": 7619,
      "å°±åľ¨": 7620,
      "ç©ºè°ĥ": 7621,
      "éĺ³å¸Ĥ": 7622,
      "Ġpresident": 7623,
      "å¤§éģĵ": 7624,
      "å»ºç¯ī": 7625,
      "åį°è±¡": 7626,
      "åĺ´": 7627,
      "çļĦè§Ħå®ļ": 7628,
      "atural": 7629,
      "eck": 7630,
      "éģĹä¼ł": 7631,
      "ĠMont": 7632,
      "éĩĮéĿ¢": 7633,
      "æĪĳä»¬åı¯ä»¥": 7634,
      "æĶ¶åĪ°": 7635,
      "èĤ¿çĺ¤": 7636,
      "acing": 7637,
      "ä¼ĺåħĪ": 7638,
      "æĵħ": 7639,
      "éŃħ": 7640,
      "ique": 7641,
      "Ġcost": 7642,
      "æĪĳæĥ³": 7643,
      "çĶ±æŃ¤": 7644,
      "æµģéĩı": 7645,
      "Ġfeatures": 7646,
      "è§Ĥå¿µ": 7647,
      "ç»Ŀå¯¹": 7648,
      "èľĤ": 7649,
      "time": 7650,
      "å¤ļå®¶": 7651,
      "éĢłåŀĭ": 7652,
      "åı£ç½©": 7653,
      "çĽĳæİ§": 7654,
      "Ġpriv": 7655,
      "è¿İæĿ¥": 7656,
      "Ġfeatured": 7657,
      "Ġcampaign": 7658,
      "pro": 7659,
      "itte": 7660,
      "ä»¥ä¾¿": 7661,
      "Ġthroughout": 7662,
      "åı¥è¯Ŀ": 7663,
      "è®Ģ": 7664,
      "Ġmot": 7665,
      "äº§èĥ½": 7666,
      "å©Ĩ": 7667,
      "ospital": 7668,
      "ä¸§": 7669,
      "Ġpark": 7670,
      "ĠCr": 7671,
      "èĢĮæĪĲ": 7672,
      "èī³": 7673,
      "éĩĮæĸ¯": 7674,
      "é£İæĻ¯": 7675,
      "rd": 7676,
      "åĴĮæľįåĬ¡": 7677,
      "éĿĪ": 7678,
      "èģĮè´£": 7679,
      "çģ«ç®Ń": 7680,
      "æµ·åĨĽ": 7681,
      "Ġrecogn": 7682,
      "Ġinvest": 7683,
      "æľīåĬ©äºİ": 7684,
      "æħķ": 7685,
      "æĸĩåĮĸçļĦ": 7686,
      "ictor": 7687,
      "Ġblack": 7688,
      "Ġliter": 7689,
      "åļ´": 7690,
      "ä¼ļéķ¿": 7691,
      "å·¥äºº": 7692,
      "åįģä¸Ģ": 7693,
      "æĲŃéħį": 7694,
      "åĽĽå·Ŀçľģ": 7695,
      "iol": 7696,
      "ĠSociety": 7697,
      "ç½ĳåıĭ": 7698,
      "èħĬ": 7699,
      "åŃ©åŃĲçļĦ": 7700,
      "å±Ī": 7701,
      "èĭ¯": 7702,
      "å±±è¥¿": 7703,
      "aval": 7704,
      "Ġsepar": 7705,
      "ĠCourt": 7706,
      "120": 7707,
      "æĹ¬": 7708,
      "asons": 7709,
      "é¢ĸ": 7710,
      "èº«è¾¹": 7711,
      "çĹħçļĦ": 7712,
      "é£ŀè¡Į": 7713,
      "arliam": 7714,
      "Ġeducation": 7715,
      "ä½ĵåĪ¶": 7716,
      "è°ĥçłĶ": 7717,
      "çļĦä¸Ģéĥ¨åĪĨ": 7718,
      "Ġcompos": 7719,
      "å±±ä¸ľçľģ": 7720,
      "ĠFootball": 7721,
      "Ġplan": 7722,
      "acters": 7723,
      "Ġperformance": 7724,
      "ya": 7725,
      "Ġstri": 7726,
      "å¾Īæľī": 7727,
      "åŁİä¹¡": 7728,
      "è¿ĲåĬ¨åĳĺ": 7729,
      "çĽ¸åºĶçļĦ": 7730,
      "atre": 7731,
      "éĢĬ": 7732,
      "å¯¶": 7733,
      "çĲ³": 7734,
      "æŀļ": 7735,
      "å·¥ä½ľä¸Ń": 7736,
      "aps": 7737,
      "Ġparty": 7738,
      "Ġindivid": 7739,
      "ĠTexas": 7740,
      "Ġaut": 7741,
      "ä¸Ģç¯ĩ": 7742,
      "ĠÂ": 7743,
      "ĠSl": 7744,
      "æĭĮ": 7745,
      "æĹ¥åŃĲ": 7746,
      "æŁľ": 7747,
      "æĦıå¤ĸ": 7748,
      "æĶ¯åĩº": 7749,
      "èĤ¡æĿĥ": 7750,
      "Ġ2017": 7751,
      "ĠScott": 7752,
      "Ġentire": 7753,
      "Ġdirected": 7754,
      "æĪĳä»¬åľ¨": 7755,
      "åįľ": 7756,
      "ç¯Ħ": 7757,
      "Ġput": 7758,
      "åı·çº¿": 7759,
      "arliament": 7760,
      "52": 7761,
      "Ġele": 7762,
      "éĺ¿æĭī": 7763,
      "Ġeventually": 7764,
      "ios": 7765,
      "Ġide": 7766,
      "åĲķ": 7767,
      "ä¹Łèĥ½": 7768,
      "æľºéģĩ": 7769,
      "åĲįåŃĹ": 7770,
      "æľįåĭĻ": 7771,
      "è¼ķ": 7772,
      "æ°´æŀľ": 7773,
      "å¤ĸåĽ½": 7774,
      "çĽ¸ä¼¼": 7775,
      "Ġstations": 7776,
      "éĽĨæĪĲ": 7777,
      "å·´é»İ": 7778,
      "èĢĮä¸įæĺ¯": 7779,
      "ership": 7780,
      "ç©·": 7781,
      "æĥ³åĪ°": 7782,
      "çĽ´æĴŃ": 7783,
      "éĿŀæ´²": 7784,
      "è¾½å®ģ": 7785,
      "æĺ¯ä»Ģä¹Ī": 7786,
      "è¾©": 7787,
      "Ġseven": 7788,
      "åĤħ": 7789,
      "1993": 7790,
      "èŃ¦æĸ¹": 7791,
      "éĢĻäºĽ": 7792,
      "å¼Ģæĭĵ": 7793,
      "å±Ģéķ¿": 7794,
      "å¼¯": 7795,
      "æ³ģ": 7796,
      "é¸£": 7797,
      "Ġemploy": 7798,
      "Ġz": 7799,
      "çļĦç²¾ç¥ŀ": 7800,
      "æĺ¯éĿŀå¸¸": 7801,
      "ä¹Łè®¸": 7802,
      "ç³ķ": 7803,
      "Ġothers": 7804,
      "æįŁå®³": 7805,
      "shire": 7806,
      "3000": 7807,
      "è´º": 7808,
      "Ġread": 7809,
      "ç·´": 7810,
      "æĹĹä¸ĭ": 7811,
      "ç«ŀäºīåĬĽ": 7812,
      "FA": 7813,
      "ĠShe": 7814,
      "estival": 7815,
      "enced": 7816,
      "mar": 7817,
      "ä¸ŃåĮ»": 7818,
      "udd": 7819,
      "éĢĤçĶ¨": 7820,
      "è®¾å¤ĩçļĦ": 7821,
      "èĪŀè¹Ī": 7822,
      "éī´å®ļ": 7823,
      "ĠDon": 7824,
      "å®Įç¾İ": 7825,
      "è®°è½½": 7826,
      "ä½Ļäºº": 7827,
      "æµĻæ±Łçľģ": 7828,
      "ĠGrand": 7829,
      "æ¾³å¤§åĪ©äºļ": 7830,
      "é¨": 7831,
      "ä¸ŃåĽ½äººæ°ĳ": 7832,
      "åıĸä»£": 7833,
      "Ġregular": 7834,
      "Ġelected": 7835,
      "Con": 7836,
      "ãĢī": 7837,
      "ç§ĳåŃ¦éĻ¢": 7838,
      "ç½Ĺé©¬": 7839,
      "çīĪæĿĥ": 7840,
      "æĬĳåĪ¶": 7841,
      "çİĦ": 7842,
      "çķ°": 7843,
      "åĲįçĤº": 7844,
      "Ġsubsequ": 7845,
      "Ġlab": 7846,
      "chie": 7847,
      "éĹľä¿Ĥ": 7848,
      "Ġ2019": 7849,
      "Ġmount": 7850,
      "ç»ĨèıĮ": 7851,
      "ãĢĪ": 7852,
      "å®ł": 7853,
      "ï¼ļãĢĮ": 7854,
      "æ°ĳä¼Ĺ": 7855,
      "åĦª": 7856,
      "ç¬¬äºĮæ¬¡": 7857,
      "éĴ¢éĵģ": 7858,
      "çľ¼çĿĽ": 7859,
      "ä¸Ńèı¯æ°ĳåľĭ": 7860,
      "ä¸Ģæī¹": 7861,
      "ĠDem": 7862,
      "è©ŀ": 7863,
      "Ġsuff": 7864,
      "ĠSal": 7865,
      "ĠWestern": 7866,
      "åľĭæ°ĳ": 7867,
      "å¹¿æĴŃ": 7868,
      "è®¿éĹ®": 7869,
      "ä¸ĵçĶ¨": 7870,
      "å·´è¥¿": 7871,
      "æŃ¦åĻ¨": 7872,
      "gress": 7873,
      "uated": 7874,
      "Ġhit": 7875,
      "ĠSen": 7876,
      "å°ļæľª": 7877,
      "Ġmodern": 7878,
      "é¬¥": 7879,
      "umni": 7880,
      "72": 7881,
      "Ġaud": 7882,
      "ä¸Ģåľº": 7883,
      "åįİä¸º": 7884,
      "Ġ29": 7885,
      "çĶŁäº§çļĦ": 7886,
      "ç¿Ĵ": 7887,
      "å®ĹæĹ¨": 7888,
      "Ġaverage": 7889,
      "ein": 7890,
      "ĠMac": 7891,
      "ĠMart": 7892,
      "Ġ2018": 7893,
      "éģŃåĪ°": 7894,
      "Ġpoints": 7895,
      "æĹ¨åľ¨": 7896,
      "olf": 7897,
      "è¿ĩæ»¤": 7898,
      "åĽŃæŀĹ": 7899,
      "Ġavailable": 7900,
      "å°ĳæķ°": 7901,
      "isl": 7902,
      "ï¼īï¼ļ": 7903,
      "æľŁéĻĲ": 7904,
      "ĠHen": 7905,
      "æł¹æĵļ": 7906,
      "çŁ¥è¯Ĩäº§æĿĥ": 7907,
      "Ġcase": 7908,
      "æĪĸè®¸": 7909,
      "äºĮå¹´": 7910,
      "Ġappointed": 7911,
      "Ġphot": 7912,
      "åĬ¨çĶ»": 7913,
      "ç§ĺå¯Ĩ": 7914,
      "çļĦæµ·": 7915,
      "ĠSk": 7916,
      "iding": 7917,
      "ĠRock": 7918,
      "ä¾ĽåºĶåķĨ": 7919,
      "ID": 7920,
      "PA": 7921,
      "Ġord": 7922,
      "éºĹ": 7923,
      "oys": 7924,
      "Ġgroups": 7925,
      "çĿ¡çľł": 7926,
      "æľīåĪ©äºİ": 7927,
      "Sc": 7928,
      "fic": 7929,
      "å®ª": 7930,
      "Ġmother": 7931,
      "åģ·": 7932,
      "ä¹Ļçĥ¯": 7933,
      "62": 7934,
      "Ġboard": 7935,
      "æĭ³": 7936,
      "å¸ĤæĶ¿": 7937,
      "ç¾İå¥½": 7938,
      "å±¬æĸ¼": 7939,
      "çļĦæĹ¶": 7940,
      "æĺ¯æľĢ": 7941,
      "è¾ħåĬ©": 7942,
      "Ġ2020": 7943,
      "Ġcirc": 7944,
      "é«ĺäºİ": 7945,
      "Ġspe": 7946,
      "äº§ä¸ļéĵ¾": 7947,
      "äºĴçĽ¸": 7948,
      "å¨ģèĥģ": 7949,
      "åıĤåĬłäºĨ": 7950,
      "æµĵåº¦": 7951,
      "53": 7952,
      "89": 7953,
      "æĺ¯åĽłä¸º": 7954,
      "æľĢçµĤ": 7955,
      "å·²æĪĲä¸º": 7956,
      "apt": 7957,
      "æĭħå¿ĥ": 7958,
      "åľ¨å¤§": 7959,
      "Ġfree": 7960,
      "emor": 7961,
      "ume": 7962,
      "æį®æĤī": 7963,
      "Ġagre": 7964,
      "å½¼æŃ¤": 7965,
      "val": 7966,
      "æ³Ħ": 7967,
      "å®ļä¹ī": 7968,
      "çī¹å®ļ": 7969,
      "æŃ¤æĹ¶": 7970,
      "ĠIr": 7971,
      "è½»æĿ¾": 7972,
      "ways": 7973,
      "ĠMichael": 7974,
      "BS": 7975,
      "erry": 7976,
      "çĥı": 7977,
      "æ·ĭ": 7978,
      "åħ»æ®ĸ": 7979,
      "èŀįåħ¥": 7980,
      "ç¼ĸè¾ĳ": 7981,
      "ç£·": 7982,
      "é¤Ĳé¥®": 7983,
      "ĠVirgin": 7984,
      "ylvania": 7985,
      "å¹¶éĿŀ": 7986,
      "eph": 7987,
      "æ½ĺ": 7988,
      "è¯»èĢħ": 7989,
      "äºĮæĺ¯": 7990,
      "æĶ»åĿļ": 7991,
      "æĪªæŃ¢": 7992,
      "unction": 7993,
      "åĽĬ": 7994,
      "åĽ½å®¶çļĦ": 7995,
      "çµķ": 7996,
      "Ġsports": 7997,
      "è£½ä½ľ": 7998,
      "bour": 7999,
      "é¦Ī": 8000,
      "istic": 8001,
      "åįģåħŃ": 8002,
      "è¾¾æĪĲ": 8003,
      "ishop": 8004,
      "è²Ŀ": 8005,
      "çľŁæŃ£çļĦ": 8006,
      "lant": 8007,
      "ĠLaw": 8008,
      "è¨±å¤ļ": 8009,
      "87": 8010,
      "åŁĶ": 8011,
      "å®¶å±ħ": 8012,
      "ä¿¡ä»°": 8013,
      "ä¿®å¤į": 8014,
      "åŃ£èĬĤ": 8015,
      "éłĪ": 8016,
      "Ġindepend": 8017,
      "éļ¶": 8018,
      "ota": 8019,
      "Ġroute": 8020,
      "è¾ĵéĢģ": 8021,
      "anies": 8022,
      "äººç¾¤": 8023,
      "è´¾": 8024,
      "è·¯çº¿": 8025,
      "ç§¯ç´¯": 8026,
      "è¶ħè¶Ĭ": 8027,
      "ĠGold": 8028,
      "è¿ĺèĥ½": 8029,
      "éĢ²åħ¥": 8030,
      "head": 8031,
      "éĩįçļĦ": 8032,
      "å¼ĢåĲ¯": 8033,
      "Ex": 8034,
      "ĠServ": 8035,
      "å¯¹è¯Ŀ": 8036,
      "ĠPress": 8037,
      "é¥¼": 8038,
      "59": 8039,
      "ä¸ĢåĲĮ": 8040,
      "olk": 8041,
      "çº²": 8042,
      "aches": 8043,
      "éķ¿æ²Ļ": 8044,
      "åįģäºĶ": 8045,
      "æħ¢æħ¢": 8046,
      "åĪĳäºĭ": 8047,
      "ederal": 8048,
      "ids": 8049,
      "Ġcontrib": 8050,
      "Ġdaughter": 8051,
      "Ġhow": 8052,
      "å¯¹åħ¶": 8053,
      "Ġgoal": 8054,
      "é«ĺè¾¾": 8055,
      "æ°´åĪ©": 8056,
      "Ġrace": 8057,
      "èµ·äºĨ": 8058,
      "æ£ī": 8059,
      "ç¢§": 8060,
      "è¯Ħå®¡": 8061,
      "è¯¾é¢ĺ": 8062,
      "ĠMiss": 8063,
      "ĠWil": 8064,
      "æīĵå¼Ģ": 8065,
      "Ġcharacters": 8066,
      "ä¸īåĪĨ": 8067,
      "èµ·åĪ°": 8068,
      "Ġkilled": 8069,
      "iec": 8070,
      "æ³ķäºº": 8071,
      "å®īåħ¨çĶŁäº§": 8072,
      "åıĥèĪĩ": 8073,
      "åĽ¾ä¹¦é¦Ĩ": 8074,
      "54": 8075,
      "éĢ»": 8076,
      "Ġbo": 8077,
      "æ¯ıæ¬¡": 8078,
      "æ¿Ģåħī": 8079,
      "èĦ±è´«": 8080,
      "åħ±äº§åħļ": 8081,
      "äººæĸĩ": 8082,
      "ĠGreen": 8083,
      "éĤĵ": 8084,
      "Ġra": 8085,
      "éģµå®Ī": 8086,
      "erb": 8087,
      "ä¸Ńå±±": 8088,
      "å¹´èµ·": 8089,
      "æĮ¤": 8090,
      "éĥ½åı¯ä»¥": 8091,
      "å®¡è®¡": 8092,
      "Some": 8093,
      "å¤ļå¹´çļĦ": 8094,
      "ä»£è°¢": 8095,
      "ç²¾åĩĨ": 8096,
      "ĠYear": 8097,
      "æ±ºå®ļ": 8098,
      "èį¡": 8099,
      "å®ĥæĺ¯": 8100,
      "1980": 8101,
      "ĠPresident": 8102,
      "ĠSam": 8103,
      "ilities": 8104,
      "æıĲåĪ°": 8105,
      "åĿĿ": 8106,
      "æį®äºĨè§£": 8107,
      "éª¤": 8108,
      "æľĪåºķ": 8109,
      "adium": 8110,
      "Ġearl": 8111,
      "éĻ¶çĵ·": 8112,
      "ĠFlor": 8113,
      "ä¸Ĭæľī": 8114,
      "èĤ©": 8115,
      "éªĹ": 8116,
      "æĶ¶èĹı": 8117,
      "æ¡Īä¾ĭ": 8118,
      "Ġoffice": 8119,
      "æĳĦå½±": 8120,
      "åĩºæĿ¥çļĦ": 8121,
      "æĹ¥æľŁ": 8122,
      "unt": 8123,
      "ä½¿åħ¶": 8124,
      "è£ķ": 8125,
      "Ġmedal": 8126,
      "å°ºå¯¸": 8127,
      "Ġhuman": 8128,
      "ç½ķ": 8129,
      "ä¹Łæ²¡æľī": 8130,
      "åģļäºĨ": 8131,
      "æ¶ĪéĻ¤": 8132,
      "Ġshows": 8133,
      "erous": 8134,
      "éĻĢ": 8135,
      "é«ĺèĢĥ": 8136,
      "èµ·éĩį": 8137,
      "æĶ¶è´Ń": 8138,
      "ification": 8139,
      "Ġfront": 8140,
      "63": 8141,
      "ees": 8142,
      "aries": 8143,
      "ranch": 8144,
      "èĬ¯çīĩ": 8145,
      "åµ": 8146,
      "edy": 8147,
      "ä¸ºæĤ¨": 8148,
      "æľŁåĪĬ": 8149,
      "èĥĢ": 8150,
      "è¿ĺåľ¨": 8151,
      "éŁ³æ¨Ĥ": 8152,
      "ä¹Łåı¯": 8153,
      "å¦®": 8154,
      "Ġacqu": 8155,
      "åłµ": 8156,
      "èĳĽ": 8157,
      "åĨĽéĺŁ": 8158,
      "Ġ1992": 8159,
      "çĳŁ": 8160,
      "éĢĻåĢĭ": 8161,
      "åıĶ": 8162,
      "æĹ¥çĽĬ": 8163,
      "sy": 8164,
      "ä¸įçŁ¥": 8165,
      "éĴ¢ç®¡": 8166,
      "çŁĽçĽ¾": 8167,
      "âĨ": 8168,
      "ä¾į": 8169,
      "çĶµåķĨ": 8170,
      "Ġstated": 8171,
      "çļĦä¿¡æģ¯": 8172,
      "æľ¬ä¹¦": 8173,
      "æ¼ĶåĶ±": 8174,
      "è¯Ħè®º": 8175,
      "Ġincludes": 8176,
      "çĸ¾çĹħçļĦ": 8177,
      "Ġmaterial": 8178,
      "«çĹ": 8179,
      "èĤĸ": 8180,
      "ems": 8181,
      "Ġstage": 8182,
      "Ġ1994": 8183,
      "Ġadded": 8184,
      "Ġaircraft": 8185,
      "æĹłè®ºæĺ¯": 8186,
      "Ġmunicipality": 8187,
      "Ġconv": 8188,
      "æķĪåºĶ": 8189,
      "æĲŀ": 8190,
      "å»¶ä¼¸": 8191,
      "ibrary": 8192,
      "ano": 8193,
      "atives": 8194,
      "æĬļ": 8195,
      "æłª": 8196,
      "å®ĮæĪĲäºĨ": 8197,
      "éģĹäº§": 8198,
      "Ġinj": 8199,
      "ada": 8200,
      "éĩĳé¢Ŀ": 8201,
      "é¦ĸéĥ½": 8202,
      "è´¢å¯Į": 8203,
      "æ¯«ç±³": 8204,
      "äººåĬĽèµĦæºĲ": 8205,
      "æ²³åįĹçľģ": 8206,
      "Ġsignificant": 8207,
      "æĺ¯æľī": 8208,
      "éģ¥": 8209,
      "Ġscored": 8210,
      "Ġdiscover": 8211,
      "Ġservices": 8212,
      "éĥ¨çļĦ": 8213,
      "åħ³èĬĤ": 8214,
      "èĻ¹": 8215,
      "åŃ¸çĶŁ": 8216,
      "åįĵè¶Ĭ": 8217,
      "Ġfund": 8218,
      "icago": 8219,
      "é¦¨": 8220,
      "Ġseen": 8221,
      "è¾ĵåħ¥": 8222,
      "ĠItalian": 8223,
      "æµ´": 8224,
      "æł¡åĮº": 8225,
      "Ġtraining": 8226,
      "åİĭç¼©": 8227,
      "ä¸´æĹ¶": 8228,
      "åĨ·åį´": 8229,
      "MS": 8230,
      "PS": 8231,
      "èĩ¨": 8232,
      "æĹłäºº": 8233,
      "å·´å£«": 8234,
      "æĭĴç»Ŀ": 8235,
      "ware": 8236,
      "åĬ£": 8237,
      "åĪ°åºķ": 8238,
      "ä¸ĭäºĨ": 8239,
      "ä¹Łå°Ĩ": 8240,
      "è¯ķçĤ¹": 8241,
      "åĪĿæŃ¥": 8242,
      "æŃ·åı²": 8243,
      "yr": 8244,
      "å½ĵå¤©": 8245,
      "Ġrul": 8246,
      "æĬĬæı¡": 8247,
      "åħ¬åĬ¡": 8248,
      "åĪĿæľŁ": 8249,
      "ç¾¤ä½ĵ": 8250,
      "éĬĢ": 8251,
      "me": 8252,
      "Ġfight": 8253,
      "æµ·åįĹ": 8254,
      "å½¢æĢģ": 8255,
      "Ġwebsite": 8256,
      "æłĭ": 8257,
      "åıĳæĺİ": 8258,
      "oms": 8259,
      "æĦŁåıĹåĪ°": 8260,
      "atory": 8261,
      "åķŁ": 8262,
      "èģĶéĤ¦": 8263,
      "ĠOn": 8264,
      "å¤ļé¡¹": 8265,
      "å½¢çĬ¶": 8266,
      "è½¬æį¢": 8267,
      "åıĳåĬ¨æľº": 8268,
      "ittee": 8269,
      "è¿ĩçļĦ": 8270,
      "ĠLake": 8271,
      "Ġconduct": 8272,
      "ç§»æ°ĳ": 8273,
      "ĠOlympics": 8274,
      "Ġcop": 8275,
      "road": 8276,
      "çĶ¨åĵģ": 8277,
      "è¿Ļéĥ¨": 8278,
      "Ġ1960": 8279,
      "æĽ´æľī": 8280,
      "çļĦåŁºç¡Ģä¸Ĭ": 8281,
      "ä¸ĭåİ»": 8282,
      "ĠRobert": 8283,
      "çħĮ": 8284,
      "ç´§æĢ¥": 8285,
      "éģĹåĿĢ": 8286,
      "93": 8287,
      "Ġreached": 8288,
      "æľĪçļĦ": 8289,
      "ĠCro": 8290,
      "çº³åħ¥": 8291,
      "æ¡£æ¡Ī": 8292,
      "å¤¹": 8293,
      "è¿Ļä¹Łæĺ¯": 8294,
      "çŃīå¾ħ": 8295,
      "é©Ĺ": 8296,
      "åģ¥èº«": 8297,
      "éĵ¶å±ĳ": 8298,
      "800": 8299,
      "ena": 8300,
      "éĢ¾": 8301,
      "çĲĨçĶ±": 8302,
      "ude": 8303,
      "ç¥ŀç§ĺ": 8304,
      "æīĵåį°": 8305,
      "çĸ«èĭĹ": 8306,
      "ä¸¥éĩįçļĦ": 8307,
      "æ··åĩĿåľŁ": 8308,
      "sylvania": 8309,
      "æīĢå¾Ĺ": 8310,
      "æ¶ĪèĢĹ": 8311,
      "Ġreplaced": 8312,
      "Ġlaun": 8313,
      "reland": 8314,
      "åıįå¯¹": 8315,
      "Ph": 8316,
      "æĹ¥æĬ¥": 8317,
      "Ġlook": 8318,
      "è¢ģ": 8319,
      "ults": 8320,
      "å¸¸åĬ¡": 8321,
      "æĺİçĻ½": 8322,
      "Ġtre": 8323,
      "Ġbank": 8324,
      "èı©": 8325,
      "ç¶ĵæ¿Ł": 8326,
      "åįģä¹Ŀ": 8327,
      "éŁĵ": 8328,
      "ä¾Ŀçħ§": 8329,
      "å¤±è´¥": 8330,
      "å½»åºķ": 8331,
      "ST": 8332,
      "Ġcy": 8333,
      "Ġpain": 8334,
      "ĠMark": 8335,
      "é¤ĺ": 8336,
      "ä¸ŃéĹ´": 8337,
      "Ġdev": 8338,
      "æ¦®": 8339,
      "ç³ĸå°¿": 8340,
      "åħĪè¿ĽçļĦ": 8341,
      "è¿ĶåĽŀ": 8342,
      "çŁ©": 8343,
      "Ġforces": 8344,
      "åİ»ä¸ĸ": 8345,
      "Ġclos": 8346,
      "æľ¬åľ°": 8347,
      "å½ĵå¹´": 8348,
      "ector": 8349,
      "æ´»åĬ¨çļĦ": 8350,
      "km": 8351,
      "ä¸ºä¸Ģ": 8352,
      "Ġdoc": 8353,
      "ç´°": 8354,
      "å¾Īå®¹æĺĵ": 8355,
      "æ±Łè¥¿": 8356,
      "æŃ£ç¡®çļĦ": 8357,
      "ä¸ºå®¢æĪ·": 8358,
      "Ġphys": 8359,
      "èĢĥåı¤": 8360,
      "æĶ¾æĿ¾": 8361,
      "Ġenc": 8362,
      "ä½Ī": 8363,
      "æĿī": 8364,
      "ä¸įä½Ĩ": 8365,
      "åıĳè¾¾": 8366,
      "åħ¬ç¤º": 8367,
      "Ġnight": 8368,
      "æ²³æµģ": 8369,
      "çİ¯å¢ĥä¿ĿæĬ¤": 8370,
      "ĠChristian": 8371,
      "serv": 8372,
      "äºĮçº§": 8373,
      "æĽ¿ä»£": 8374,
      "Ġmust": 8375,
      "ĠLos": 8376,
      "Ġ1993": 8377,
      "Ġimpro": 8378,
      "Ġexample": 8379,
      "DP": 8380,
      "be": 8381,
      "igan": 8382,
      "éĶĲ": 8383,
      "Ġclose": 8384,
      "é¼İ": 8385,
      "airs": 8386,
      "ength": 8387,
      "ĠCarol": 8388,
      "æľĢä¸º": 8389,
      "ĠFirst": 8390,
      "æ¶Īæ¯Ĵ": 8391,
      "è¯Ħä¸º": 8392,
      "Ġfinished": 8393,
      "writ": 8394,
      "nder": 8395,
      "ä¸įå¥½": 8396,
      "merc": 8397,
      "åĳ³éģĵ": 8398,
      "lor": 8399,
      "å¥ł": 8400,
      "éĩįå»º": 8401,
      "æĵģ": 8402,
      "å®´": 8403,
      "è¯µ": 8404,
      "æĸ°çĶŁ": 8405,
      "ä¼łè¾ĵ": 8406,
      "éĤ£éĩĮ": 8407,
      "çĶ¨äººåįķä½į": 8408,
      "Ġåľ¨": 8409,
      "Ġwhite": 8410,
      "è§Ĥçľĭ": 8411,
      "åįıåĲĮ": 8412,
      "æķĳæı´": 8413,
      "çĪĨåıĳ": 8414,
      "å¥īçĮ®": 8415,
      "cle": 8416,
      "æĺ¯ä¸ª": 8417,
      "åĨħå¿ĥ": 8418,
      "æ£ļ": 8419,
      "çłĶç©¶ä¸Ńå¿ĥ": 8420,
      "Ġinvolved": 8421,
      "69": 8422,
      "itect": 8423,
      "ä¸İæŃ¤": 8424,
      "Ġlanguage": 8425,
      "ula": 8426,
      "çĻ½æĸĳ": 8427,
      "çĻ¾åĪĨ": 8428,
      "aught": 8429,
      "çļĦåŃ¦çĶŁ": 8430,
      "åŃ«": 8431,
      "éģĤ": 8432,
      "é¢ĩ": 8433,
      "éĩįéĩı": 8434,
      "ç»Ħå»º": 8435,
      "ä¼łæŁĵ": 8436,
      "ĠProv": 8437,
      "æŀ¢": 8438,
      "ä¼łæĦŁ": 8439,
      "ĠArch": 8440,
      "çĪĨçĤ¸": 8441,
      "éĭ": 8442,
      "åĲ³": 8443,
      "Ġbi": 8444,
      "è¿Ļä½į": 8445,
      "æĬķç¥¨": 8446,
      "æłĳç«ĭ": 8447,
      "Ġdesigned": 8448,
      "Ġeither": 8449,
      "æ¯Ķäºļ": 8450,
      "åįĹæĸ¹": 8451,
      "Ġbroadcast": 8452,
      "iation": 8453,
      "æ°ĳåĽ½": 8454,
      "åĲ¦åĪĻ": 8455,
      "äººæīįåŁ¹åħ»": 8456,
      "å©´åĦ¿": 8457,
      "Ġhom": 8458,
      "çŃ¾ç½²": 8459,
      "Ġlargest": 8460,
      "Ġeconom": 8461,
      "åº«": 8462,
      "Ġrange": 8463,
      "ä¾Ŀæīĺ": 8464,
      "åĲīæŀĹ": 8465,
      "annel": 8466,
      "å¹³æĹ¶": 8467,
      "ĠAcademy": 8468,
      "PC": 8469,
      "idents": 8470,
      "æĽ¾åľ¨": 8471,
      "æ¶ħ": 8472,
      "Ġstudio": 8473,
      "ĠCentral": 8474,
      "ãĥ»": 8475,
      "æĸ°åĨłèĤºçĤİ": 8476,
      "ĠCatholic": 8477,
      "ential": 8478,
      "åĪĹè»Ĭ": 8479,
      "çĩĥæĸĻ": 8480,
      "Ġinstead": 8481,
      "ĠCharles": 8482,
      "5000": 8483,
      "å½ĵä»£": 8484,
      "æ³ķå®ļ": 8485,
      "åĮºåĪ«": 8486,
      "ills": 8487,
      "æ¸¯åı£": 8488,
      "And": 8489,
      "ened": 8490,
      "åı¯ä»¥å¸®åĬ©": 8491,
      "èĮħ": 8492,
      "æĶ¶èİ·": 8493,
      "ala": 8494,
      "éĺģ": 8495,
      "ĠDay": 8496,
      "åįĹåĮĹ": 8497,
      "æĮģæľī": 8498,
      "å®¡æī¹": 8499,
      "æİ¢è®¨": 8500,
      "Her": 8501,
      "åĴ¸": 8502,
      "å¼Ħ": 8503,
      "åıĳè¨Ģ": 8504,
      "å·²ç¶ĵ": 8505,
      "1991": 8506,
      "Ġadminist": 8507,
      "rought": 8508,
      "Ġalbums": 8509,
      "ç¯ĢçĽ®": 8510,
      "æķĻç»ĥ": 8511,
      "è¯ĦéĢī": 8512,
      "çģ¾å®³": 8513,
      "å¯¨": 8514,
      "åħ¥éĢī": 8515,
      "èĲĬ": 8516,
      "ands": 8517,
      "åĽĽå¤§": 8518,
      "æĢĿè·¯": 8519,
      "Ġable": 8520,
      "ä¹ĺå®¢": 8521,
      "é¡¾å®¢": 8522,
      "åĨ¬åŃ£": 8523,
      "61": 8524,
      "æīĩ": 8525,
      "éĢļçĶ¨": 8526,
      "éĢļéģİ": 8527,
      "ĠJos": 8528,
      "é¢ĦæľŁ": 8529,
      "Ġ31": 8530,
      "åĶ®åĲİ": 8531,
      "Ġtransfer": 8532,
      "çļĦä¸ŃåĽ½": 8533,
      "arter": 8534,
      "Ġfoc": 8535,
      "èµģ": 8536,
      "æ°´æ³¥": 8537,
      "ĠChina": 8538,
      "Ġresearch": 8539,
      "vert": 8540,
      "æĸ¯çļĦ": 8541,
      "Ġassoci": 8542,
      "uty": 8543,
      "Ġproble": 8544,
      "Ġkm": 8545,
      "å¸¦æĿ¥äºĨ": 8546,
      "ç§Łèµģ": 8547,
      "Ġbuildings": 8548,
      "ä»£çłģ": 8549,
      "ä¸ĵé¢ĺ": 8550,
      "äº¤æį¢": 8551,
      "çľĭæĿ¥": 8552,
      "çĶĺèĤĥ": 8553,
      "äºĭå®ŀä¸Ĭ": 8554,
      "face": 8555,
      "è°Ĭ": 8556,
      "ĠFr": 8557,
      "èŃ°åĵ¡": 8558,
      "Ġcritic": 8559,
      "æ¬£èµı": 8560,
      "æľĪèĩ³": 8561,
      "åĬ¨æĢģ": 8562,
      "å¦Ĩ": 8563,
      "Ġ1991": 8564,
      "ĠFranc": 8565,
      "arr": 8566,
      "ç¾İé£Ł": 8567,
      "Ġdeg": 8568,
      "æīĵåĩ»": 8569,
      "ç¿Ķ": 8570,
      "å¤ķ": 8571,
      "ask": 8572,
      "ĠBook": 8573,
      "çī©èµĦ": 8574,
      "æĸĩèīº": 8575,
      "éĺŁåĳĺ": 8576,
      "é¦ĸå¸Ń": 8577,
      "Ġaccess": 8578,
      "Ġwriting": 8579,
      "å¹´åĪĿ": 8580,
      "æıĽ": 8581,
      "iff": 8582,
      "è¶ħçº§": 8583,
      "Ġdecided": 8584,
      "ĠZeal": 8585,
      "ground": 8586,
      "mon": 8587,
      "å·¢": 8588,
      "Ġdou": 8589,
      "åľ°ä¸Ĭ": 8590,
      "çĶµæºĲ": 8591,
      "çļĦè¿ĩç¨ĭä¸Ń": 8592,
      "åį¸": 8593,
      "ĠSqu": 8594,
      "æ¯ħ": 8595,
      "åı¯ä»¥è¯´": 8596,
      "åĪĹåħ¥": 8597,
      "ä¸įéĶĪ": 8598,
      "Ġplaced": 8599,
      "åī¯ä¹¦è®°": 8600,
      "çļĦä½¿çĶ¨": 8601,
      "åħĨ": 8602,
      "Ġder": 8603,
      "éĻķè¥¿": 8604,
      "æĸ°åħ´": 8605,
      "æĻĴ": 8606,
      "ĠFilm": 8607,
      "å¢ŀåĬłäºĨ": 8608,
      "éĹ¹": 8609,
      "æĶ¾åħ¥": 8610,
      "Ġsocial": 8611,
      "atin": 8612,
      "aying": 8613,
      "æľĢå¤ļ": 8614,
      "éķ¿æĹ¶éĹ´": 8615,
      "çĶµæľº": 8616,
      "åĪĿå¿ĥ": 8617,
      "è¼ª": 8618,
      "éĢıæĺİ": 8619,
      "hood": 8620,
      "viron": 8621,
      "æīŃ": 8622,
      "åĲĮäºĭ": 8623,
      "æ´»åĬĽ": 8624,
      "aine": 8625,
      "æ¯ıæĹ¥": 8626,
      "èĳī": 8627,
      "éļĶç¦»": 8628,
      "Ġleading": 8629,
      "ĠFlorida": 8630,
      "arth": 8631,
      "éĢ¼": 8632,
      "æĶĢ": 8633,
      "åħ¬å¹³": 8634,
      "çººç»ĩ": 8635,
      "Bl": 8636,
      "ä¼ª": 8637,
      "å¹´éĹ´": 8638,
      "ä½įçļĦ": 8639,
      "uter": 8640,
      "å¼ıçļĦ": 8641,
      "é¢Ĺç²Ĵ": 8642,
      "uild": 8643,
      "ä¸įäºĨ": 8644,
      "ä¸įéģİ": 8645,
      "å¼ºå¤§çļĦ": 8646,
      "éĺŁçļĦ": 8647,
      "çĶ»éĿ¢": 8648,
      "æ¿ĢåĬ±": 8649,
      "åģľè½¦": 8650,
      "è´Ŀå°Ķ": 8651,
      "84": 8652,
      "Ġsaw": 8653,
      "æ¸¸æ³³": 8654,
      "incip": 8655,
      "åĩºåı°": 8656,
      "æħ¶": 8657,
      "é©¬æĿ¥": 8658,
      "æ¤ħ": 8659,
      "è¯¾åłĤ": 8660,
      "Ġrespons": 8661,
      "ĠZealand": 8662,
      "ä¸Ģæĸ¹éĿ¢": 8663,
      "æ¡¶": 8664,
      "è¨Ĭ": 8665,
      "åłª": 8666,
      "å¥ĸåĬ±": 8667,
      "åıĳå¸ĥçļĦ": 8668,
      "çĦ¡æ³ķ": 8669,
      "æĮº": 8670,
      "åĨįçĶŁ": 8671,
      "ï¼Ĳ": 8672,
      "ĠPat": 8673,
      "åĪ¶çļĦ": 8674,
      "å»¶éķ¿": 8675,
      "ĠCommun": 8676,
      "çĥĺ": 8677,
      "è®©ä½ł": 8678,
      "ä¾ĿéĿł": 8679,
      "åŁİå¸ĤçļĦ": 8680,
      "åı¦ä¸Ģä¸ª": 8681,
      "éĢłæĪĲçļĦ": 8682,
      "Pl": 8683,
      "ĠSim": 8684,
      "ĠAlex": 8685,
      "åħ¨æĸ°": 8686,
      "æľįåĬ¡çļĦ": 8687,
      "ĠInter": 8688,
      "ĠWhite": 8689,
      "ER": 8690,
      "å¥´": 8691,
      "è¯´çļĦ": 8692,
      "åĬ³åĬ¨åĲĪåĲĮ": 8693,
      "Ġmarket": 8694,
      "ç§©": 8695,
      "éĻ£": 8696,
      "ĠMuseum": 8697,
      "æĸĩæľ¬": 8698,
      "åĨįåº¦": 8699,
      "ĠThomas": 8700,
      "æħ¢æĢ§": 8701,
      "ĠAfrican": 8702,
      "94": 8703,
      "åĩºåİ»": 8704,
      "æĮ¡": 8705,
      "ĠHam": 8706,
      "ateg": 8707,
      "è§Ĩä¸º": 8708,
      "æķ£çĥŃ": 8709,
      "ply": 8710,
      "asing": 8711,
      "æīįæĺ¯": 8712,
      "Ġkey": 8713,
      "Ġprovided": 8714,
      "åĨ¯": 8715,
      "çŃĭ": 8716,
      "çī©ä¸ļ": 8717,
      "utch": 8718,
      "agon": 8719,
      "è£Ķ": 8720,
      "åĬ©åĬĽ": 8721,
      "Ġupon": 8722,
      "æłĳèĦĤ": 8723,
      "ç°¡": 8724,
      "Ġdestroy": 8725,
      "mb": 8726,
      "æķħéļľ": 8727,
      "Ġlittle": 8728,
      "åıĽ": 8729,
      "rel": 8730,
      "ä¸Ģåº¦": 8731,
      "æĶĿ": 8732,
      "æĮĩå®ļ": 8733,
      "éħįå¤ĩ": 8734,
      "éļıæĹ¶": 8735,
      "åĿĩåĮĢ": 8736,
      "åĿļå®ļ": 8737,
      "ISO": 8738,
      "åħ½": 8739,
      "è¡Ķ": 8740,
      "å¿Į": 8741,
      "æĪĲåĵ¡": 8742,
      "ĠVictor": 8743,
      "çģµæ´»": 8744,
      "ĠPennsylvania": 8745,
      "yd": 8746,
      "çļĦä½ľåĵģ": 8747,
      "asc": 8748,
      "èĪŁ": 8749,
      "ç´§å¯Ĩ": 8750,
      "medi": 8751,
      "AR": 8752,
      "Ġsil": 8753,
      "Ġwid": 8754,
      "éĿĸ": 8755,
      "Ġisland": 8756,
      "éŁµ": 8757,
      "æĺ¥èĬĤ": 8758,
      "çĶµè§Ĩåī§": 8759,
      "part": 8760,
      "åİŁæĿ¥": 8761,
      "ç®¡çĲĨä½ĵç³»": 8762,
      "æĥ³è±¡": 8763,
      "Ġcoast": 8764,
      "æ¹ĸåįĹçľģ": 8765,
      "heast": 8766,
      "å»ł": 8767,
      "ä¸ĭåĪĹ": 8768,
      "å°ĨåĨĽ": 8769,
      "èī²åĪĹ": 8770,
      "èģĮåĬ¡": 8771,
      "æ¨¡æĭŁ": 8772,
      "ä¸ĸçķĮçļĦ": 8773,
      "aching": 8774,
      "errit": 8775,
      "ĠCont": 8776,
      "å°ıåĮº": 8777,
      "åĩıè½»": 8778,
      "ĠDepartment": 8779,
      "ç¬¬åħ«": 8780,
      "å°ıåŀĭ": 8781,
      "ĠLit": 8782,
      "ä¸¦ä¸Ķ": 8783,
      "Ġcollege": 8784,
      "âĨĴ": 8785,
      "ĠCong": 8786,
      "Ġriver": 8787,
      "æ½Ń": 8788,
      "èĭıå·ŀ": 8789,
      "ĠScot": 8790,
      "åĬ³åĬ¨èĢħ": 8791,
      "éļĲæĤ£": 8792,
      "kn": 8793,
      "Ġill": 8794,
      "è¡į": 8795,
      "ĠTur": 8796,
      "è´§çī©": 8797,
      "ç¸½çµ±": 8798,
      "Ġsour": 8799,
      "ĠPri": 8800,
      "æī¹è¯Ħ": 8801,
      "erc": 8802,
      "åıĳèĤ²": 8803,
      "çĪ½": 8804,
      "ä¸ĸç´Ģ": 8805,
      "åĽ½å®¶åĴĮ": 8806,
      "éłĨ": 8807,
      "æĭħå½ĵ": 8808,
      "æ¿Ģåıĳ": 8809,
      "è´Ńçī©": 8810,
      "åİĨåı²ä¸Ĭ": 8811,
      "è¿ĽæĶ»": 8812,
      "æĹłçº¿": 8813,
      "Ġbirth": 8814,
      "ĠCast": 8815,
      "çľĭçľĭ": 8816,
      "å°įæĸ¼": 8817,
      "inese": 8818,
      "åį§": 8819,
      "æīĵçł´": 8820,
      "å»ºè®¾çļĦ": 8821,
      "å¾®çĶŁçī©": 8822,
      "ĠFrank": 8823,
      "Ġintroduced": 8824,
      "iqu": 8825,
      "Ġinformation": 8826,
      "èº«å¿ĥ": 8827,
      "å¼Ģå·¥": 8828,
      "æķ°çļĦ": 8829,
      "Ġrailway": 8830,
      "çİ¯å¢ĥçļĦ": 8831,
      "é¤Ĭ": 8832,
      "åįģåĽĽ": 8833,
      "èµĦè®¯": 8834,
      "éħ¬": 8835,
      "æĪ¿éĹ´": 8836,
      "æĿĲæĸĻçļĦ": 8837,
      "èģ¯åĲĪ": 8838,
      "èĩªä¿¡": 8839,
      "æĢ»è£ģ": 8840,
      "ä¸ĩå¹³æĸ¹ç±³": 8841,
      "æ¶µçĽĸ": 8842,
      "ç»µ": 8843,
      "Ġpast": 8844,
      "ä¸ĬéĿ¢": 8845,
      "æĽ´é«ĺ": 8846,
      "å½±è§Ĩ": 8847,
      "åħĥå¹´": 8848,
      "ä»ĬæĹ¥": 8849,
      "ç»ĻäºĨ": 8850,
      "74": 8851,
      "æĸ°å»º": 8852,
      "Ġnorthern": 8853,
      "æ¥Ĭ": 8854,
      "ressed": 8855,
      "CD": 8856,
      "äººäºĭ": 8857,
      "è¾ĥä½İ": 8858,
      "Ġbooks": 8859,
      "ĠSmith": 8860,
      "ä½Ķ": 8861,
      "å¹´è¢«": 8862,
      "icated": 8863,
      "æ°´ä¸Ń": 8864,
      "ĠIt": 8865,
      "æĻĤæľŁ": 8866,
      "Ġfourth": 8867,
      "ĠAfrica": 8868,
      "71": 8869,
      "çļĦåħ³éĶ®": 8870,
      "æľīè¶£": 8871,
      "ä¿±": 8872,
      "ĠKh": 8873,
      "å¤ªéĺ³èĥ½": 8874,
      "ä¸Ĭæĺł": 8875,
      "stant": 8876,
      "çĲĨå·¥": 8877,
      "Ġstre": 8878,
      "çĥĤ": 8879,
      "è¿Ĳä½ľ": 8880,
      "è®¤çŁ¥": 8881,
      "Ġchampionship": 8882,
      "æ¬§åħĥ": 8883,
      "ĠPlay": 8884,
      "âĶ": 8885,
      "Ġpur": 8886,
      "æ¨¹": 8887,
      "èĭıèģĶ": 8888,
      "ĠSpanish": 8889,
      "track": 8890,
      "och": 8891,
      "Ġfav": 8892,
      "åħ¬åı¸åľ¨": 8893,
      "æ§į": 8894,
      "æª¢": 8895,
      "çļĦåĨħå®¹": 8896,
      "çĻ«çĹ": 8897,
      "é¹ı": 8898,
      "çĻ«çĹ«": 8899,
      "xt": 8900,
      "Ġesc": 8901,
      "æ°Ł": 8902,
      "æŃ¸": 8903,
      "è¢ĸ": 8904,
      "éĻ¢å£«": 8905,
      "Ġartic": 8906,
      "æĬ«éľ²": 8907,
      "Ġser": 8908,
      "olit": 8909,
      "è¿Ľç¨ĭ": 8910,
      "ĠLeg": 8911,
      "å¹²åĩĢ": 8912,
      "åĪĨåĪ«ä¸º": 8913,
      "duction": 8914,
      "çĽ²": 8915,
      "åīįæĻ¯": 8916,
      "éĢīä¸¾": 8917,
      "ä¸įå¾Ĺä¸į": 8918,
      "æľīå®³": 8919,
      "æĸ¯ç§ĳ": 8920,
      "oring": 8921,
      "Ġpred": 8922,
      "çĭ¼": 8923,
      "çļĦäººçĶŁ": 8924,
      "æ¡¥æ¢ģ": 8925,
      "Ġruns": 8926,
      "Ġfig": 8927,
      "èĩĤ": 8928,
      "èĤ¢": 8929,
      "ado": 8930,
      "éĿ¢åīį": 8931,
      "æĽ´æį¢": 8932,
      "åĲĦçķĮ": 8933,
      "å¸ĿåĽ½": 8934,
      "ĠTor": 8935,
      "èĩ³äºİ": 8936,
      "å±±åĮº": 8937,
      "Ġcentral": 8938,
      "ĠRussian": 8939,
      "Br": 8940,
      "çļĦå¤©": 8941,
      "çĹķ": 8942,
      "èģļæ°¨": 8943,
      "æ¯ĶèµĽä¸Ń": 8944,
      "ĠTrans": 8945,
      "æĢ»ä¹ĭ": 8946,
      "è±Ĳ": 8947,
      "é¸¿": 8948,
      "çĽĴ": 8949,
      "Ġanal": 8950,
      "Ġflow": 8951,
      "Ġgold": 8952,
      "èµĦåĬ©": 8953,
      "èĬ±åĽŃ": 8954,
      "Ġcut": 8955,
      "ç«Ļåľ¨": 8956,
      "ç»ĥä¹ł": 8957,
      "FL": 8958,
      "Ġcreat": 8959,
      "åħ¬äº¤": 8960,
      "æĥĳ": 8961,
      "æĶ¶è´¹": 8962,
      "åģļæ³ķ": 8963,
      "Ġabove": 8964,
      "è¼¯": 8965,
      "To": 8966,
      "eff": 8967,
      "é«ĺéĽĦ": 8968,
      "ä»ĬåĲİ": 8969,
      "æ¶Īå¤±": 8970,
      "Ġcompanies": 8971,
      "åıĳä½ľ": 8972,
      "å®ŀçĶ¨": 8973,
      "çĪ·": 8974,
      "ĠChicago": 8975,
      "ç®ĢåįķçļĦ": 8976,
      "):": 8977,
      "çļĦçĽ¸åħ³": 8978,
      "æĸ°åįİ": 8979,
      "èĬĤçº¦": 8980,
      "è¨Ńæľī": 8981,
      "æĮĸæİĺ": 8982,
      "91": 8983,
      "Its": 8984,
      "é©°": 8985,
      "é¥°æ¼Ķ": 8986,
      "äºı": 8987,
      "åĲĮæŃ¥": 8988,
      "å¤Ħç½®": 8989,
      "åĥ§": 8990,
      "åŃ¸éĻ¢": 8991,
      "åĩºçīĪç¤¾": 8992,
      "hi": 8993,
      "rated": 8994,
      "åįĳ": 8995,
      "ä¸Ńéĥ¨": 8996,
      "çŃīçļĦ": 8997,
      "ä¹Łå°±": 8998,
      "çĶµè·¯": 8999,
      "è§Ħæł¼": 9000,
      "å¼ķåħ¥": 9001,
      "Ġcenter": 9002,
      "è¨ĪåĬĥ": 9003,
      "Ġbehind": 9004,
      "ĠAngeles": 9005,
      "83": 9006,
      "ĠGames": 9007,
      "æķ´æĶ¹": 9008,
      "æĻºèĥ½åĮĸ": 9009,
      "ä¸Ĭå¸Ĥåħ¬åı¸": 9010,
      "çļĦè¡Įä¸º": 9011,
      "ĠSummer": 9012,
      "æĽĿ": 9013,
      "Ġever": 9014,
      "å¹¶å°Ĩ": 9015,
      "çĽ¸ç»ĵåĲĪ": 9016,
      "æµ·å²¸": 9017,
      "Ġking": 9018,
      "Ġ1989": 9019,
      "Other": 9020,
      "åıł": 9021,
      "inct": 9022,
      "æ¬ł": 9023,
      "ĠIreland": 9024,
      "å®Ŀå®Ŀ": 9025,
      "ollowing": 9026,
      "ned": 9027,
      "çŃĽ": 9028,
      "åĪĨåĪ¥": 9029,
      "ç»ĵå©ļ": 9030,
      "æ¼Ķè®²": 9031,
      "åĦĴ": 9032,
      "ç®Ĺæ³ķ": 9033,
      "Ġlo": 9034,
      "ç¤¾ä¼ļçļĦ": 9035,
      "éĺ¿éĩĮ": 9036,
      "Ġawarded": 9037,
      "uture": 9038,
      "ç©ºä¸Ń": 9039,
      "Be": 9040,
      "éĢīçĶ¨": 9041,
      "Ġmodel": 9042,
      "ä»¥èī²åĪĹ": 9043,
      "ç±³çļĦ": 9044,
      "æĴŃåĩº": 9045,
      "ä¾µçĬ¯": 9046,
      "73": 9047,
      "çļĦè¿ĩç¨ĭ": 9048,
      "åºŀ": 9049,
      "ç²¤": 9050,
      "éļ¾åº¦": 9051,
      "æıĲç¤º": 9052,
      "ĠHot": 9053,
      "1989": 9054,
      "porary": 9055,
      "æ°®": 9056,
      "æĸ°é²ľ": 9057,
      "åŃĲå¥³": 9058,
      "å°½å¿«": 9059,
      "ä¸įéĶĪéĴ¢": 9060,
      "Since": 9061,
      "ãĢģâĢľ": 9062,
      "arily": 9063,
      "ĠSant": 9064,
      "ä»¬çļĦ": 9065,
      "ä¸»ç¾©": 9066,
      "ĠWe": 9067,
      "æĪĳä»¬å°Ĩ": 9068,
      "å¯¼å¸Ī": 9069,
      "ç²¾åĵģ": 9070,
      "ç¿ł": 9071,
      "äºīè®®": 9072,
      "Ġfemale": 9073,
      "é®": 9074,
      "æĺ¯å¯¹": 9075,
      "Ġtoo": 9076,
      "åıĳæĶ¾": 9077,
      "æĸ°æĹ¶ä»£": 9078,
      "åĵįåºĶ": 9079,
      "æĻ¯çĤ¹": 9080,
      "èģļéĽĨ": 9081,
      "åĮĸåĲĪçī©": 9082,
      "èĬ½": 9083,
      "ĠJew": 9084,
      "æĢ»å±Ģ": 9085,
      "Ġexist": 9086,
      "æ£Ģå¯Ł": 9087,
      "éĶĢéĩı": 9088,
      "well": 9089,
      "Ġoccur": 9090,
      "Ġbattle": 9091,
      "ä¸įçĶ¨": 9092,
      "å¤ļäºº": 9093,
      "çĭ±": 9094,
      "åĢºåĬ¡": 9095,
      "ç§©åºı": 9096,
      "82": 9097,
      "åı¹": 9098,
      "æ¼ł": 9099,
      "æĻ®åıĬ": 9100,
      "ä¸įå¤Ł": 9101,
      "æĪĲå¹´": 9102,
      "ĠDo": 9103,
      "ctor": 9104,
      "ĠVirginia": 9105,
      "ving": 9106,
      "Ġbrought": 9107,
      "1988": 9108,
      "cher": 9109,
      "Ġleast": 9110,
      "æĲħ": 9111,
      "æıĲé«ĺäºĨ": 9112,
      "å¿ħè¦ģçļĦ": 9113,
      "Le": 9114,
      "æ±°": 9115,
      "è½¦åŀĭ": 9116,
      "ä¸ľäº¬": 9117,
      "èĳ±": 9118,
      "åĽŀå¿Ĩ": 9119,
      "åĤĳ": 9120,
      "åº·å¤į": 9121,
      "é¥®æĸĻ": 9122,
      "Ġremov": 9123,
      "Ġachie": 9124,
      "ç¨»": 9125,
      "å¤ĸè§Ĥ": 9126,
      "äº§åĵģè´¨éĩı": 9127,
      "è©¹": 9128,
      "åĨ²çªģ": 9129,
      "çº½çº¦": 9130,
      "æī®æ¼Ķ": 9131,
      "âĶĢ": 9132,
      "âĢ¢": 9133,
      "Ġinsp": 9134,
      "ersey": 9135,
      "Ġforce": 9136,
      "æł¼å±Ģ": 9137,
      "åĽŀå®¶": 9138,
      "Ġchange": 9139,
      "åĨłè»į": 9140,
      "èīºæľ¯å®¶": 9141,
      "éĢĶå¾Ħ": 9142,
      "Ġmanager": 9143,
      "900": 9144,
      "Eng": 9145,
      "ä»ĩ": 9146,
      "åĩºè¡Į": 9147,
      "Ġreve": 9148,
      "ĠRob": 9149,
      "Ġrather": 9150,
      "Ġcourt": 9151,
      "èģļæ°¨éħ¯": 9152,
      "read": 9153,
      "Ġalumni": 9154,
      "çħ¤çĤŃ": 9155,
      "ograph": 9156,
      "ires": 9157,
      "çļĦåºĶçĶ¨": 9158,
      "Ġsen": 9159,
      "ç«Ń": 9160,
      "æľĪåĪĿ": 9161,
      "Ġ()": 9162,
      "è¿ĩåº¦": 9163,
      "ĠTom": 9164,
      "åĲĦåĽ½": 9165,
      "åĬ©çĲĨ": 9166,
      "å®¹éĩı": 9167,
      "Ġnoted": 9168,
      "è½´æī¿": 9169,
      "å¿ĹæĦ¿èĢħ": 9170,
      "Ġloss": 9171,
      "Ġnomin": 9172,
      "ä»»åĳ½": 9173,
      "è£ľ": 9174,
      "å¤ĦçļĦ": 9175,
      "ä¸Ģåº§": 9176,
      "éļİ": 9177,
      "ĠNe": 9178,
      "æ¬§çĽŁ": 9179,
      "ä»ĭç»įäºĨ": 9180,
      "ä¼¦æķ¦": 9181,
      "å¦ĩå¥³": 9182,
      "ãĢĶ": 9183,
      "Ġcivil": 9184,
      "ç³Ĭ": 9185,
      "æĽ´å¤§çļĦ": 9186,
      "å¢ŀéĢŁ": 9187,
      "ä¸¤æ¬¡": 9188,
      "ç¦ıåĪ©": 9189,
      "1987": 9190,
      "çļĦåħī": 9191,
      "Ġtreat": 9192,
      "ĠChe": 9193,
      "å¸ĤçļĦ": 9194,
      "imate": 9195,
      "Ġtransl": 9196,
      "mercial": 9197,
      "æ¸Ľ": 9198,
      "èĦĨ": 9199,
      "åģļçļĦ": 9200,
      "çĩĥçĥ§": 9201,
      "Following": 9202,
      "ä¸Ģçº¿": 9203,
      "éĽĩ": 9204,
      "å°İèĩ´": 9205,
      "ç³ĸå°¿çĹħ": 9206,
      "çļĦç®¡çĲĨ": 9207,
      "åŃĲåħ¬åı¸": 9208,
      "ĠGod": 9209,
      "Ġalmost": 9210,
      "æ°Ķæ¸©": 9211,
      "è¯¸å¤ļ": 9212,
      "èĤĮèĤī": 9213,
      "æħĪåĸĦ": 9214,
      "ĠForce": 9215,
      "éį": 9216,
      "ĠCamp": 9217,
      "Ġnetwork": 9218,
      "åİŁå§ĭ": 9219,
      "é£İæľº": 9220,
      "çĥŃå¸¦": 9221,
      "å¥³åĦ¿": 9222,
      "ender": 9223,
      "ãĢįãĢģ": 9224,
      "ä¸Ģä½ĵåĮĸ": 9225,
      "ãĢķ": 9226,
      "åħ¥åı£": 9227,
      "å¯»æ±Ĥ": 9228,
      "ä¸ŃæľĢ": 9229,
      "Ġcat": 9230,
      "è¯·æ±Ĥ": 9231,
      "Ġunits": 9232,
      "èµĶåģ¿": 9233,
      "ä»¥å¤ĸ": 9234,
      "çŃīé¢ĨåŁŁ": 9235,
      "å¤ļæķ°": 9236,
      "çĪ±å¥½": 9237,
      "ç»§æī¿": 9238,
      "Ġproducer": 9239,
      "Ġsection": 9240,
      "Ġmusical": 9241,
      "çĶµä¿¡": 9242,
      "éº¥": 9243,
      "åºŁæ°Ķ": 9244,
      "%ï¼Ľ": 9245,
      "æīĳ": 9246,
      "å¯¹æ¯Ķ": 9247,
      "æµ·æĭĶ": 9248,
      "åĮĹæĸ¹": 9249,
      "åĬŀäºĭ": 9250,
      "oke": 9251,
      "Ġchanged": 9252,
      "éĥĬ": 9253,
      "å¾ĹçŁ¥": 9254,
      "erve": 9255,
      "å®ĺç½ĳ": 9256,
      "Ġpreviously": 9257,
      "ises": 9258,
      "ĠPet": 9259,
      "iano": 9260,
      "Ġfootballers": 9261,
      "Ġprivate": 9262,
      "Ġï¼Ī": 9263,
      "éĢ¢": 9264,
      "ĠOne": 9265,
      "æŃ¥éª¤": 9266,
      "æĲı": 9267,
      "Ġwriter": 9268,
      "ä¸İæŃ¤åĲĮæĹ¶": 9269,
      "rup": 9270,
      "ï¼ĳ": 9271,
      "çļĦåħ³ç³»": 9272,
      "å¹³å®ī": 9273,
      "180": 9274,
      "çĻ¾å¹´": 9275,
      "éĻĦå±ŀ": 9276,
      "çļĦè´¨éĩı": 9277,
      "å¸½": 9278,
      "æĹ¥æĻļ": 9279,
      "ĠWales": 9280,
      "ability": 9281,
      "åİĤåķĨ": 9282,
      "éı": 9283,
      "é©¬åħĭ": 9284,
      "äº§ä¸ļåıĳå±ķ": 9285,
      "çĨĶ": 9286,
      "Ġsinger": 9287,
      "éŃħåĬĽ": 9288,
      "eated": 9289,
      "Ġbatt": 9290,
      "å¿ĥèĦı": 9291,
      "è¯´æ³ķ": 9292,
      "åĬŁæķĪ": 9293,
      "è¾ħå¯¼": 9294,
      "Ġdram": 9295,
      "Ġlower": 9296,
      "å°ıç¼ĸ": 9297,
      "è¯ķåĽ¾": 9298,
      "ä¸ĵä¸ļæĬĢæľ¯": 9299,
      "è²¡": 9300,
      "åıĥåĬł": 9301,
      "Ġobject": 9302,
      "ç»ĵæĿŁåĲİ": 9303,
      "ä¸Ļçĥ¯": 9304,
      "Ġfif": 9305,
      "ä»¥æŃ¤": 9306,
      "æ²ª": 9307,
      "æĦī": 9308,
      "å·¥ä½ľèĢħ": 9309,
      "Ġclosed": 9310,
      "Ġapprox": 9311,
      "ĠSecond": 9312,
      "sel": 9313,
      "ini": 9314,
      "çķı": 9315,
      "æī¿è®¤": 9316,
      "åŃ¦æł¡çļĦ": 9317,
      "æłĩåĩĨåĮĸ": 9318,
      "Ġ1988": 9319,
      "æ¶²ä½ĵ": 9320,
      "è¡£æľį": 9321,
      "ç§īæī¿": 9322,
      "Ġhard": 9323,
      "è¾°": 9324,
      "Ġgirl": 9325,
      "Ġestablishments": 9326,
      "ends": 9327,
      "åıįå¤į": 9328,
      "ç§ĳæĬĢåĪĽæĸ°": 9329,
      "è¾ĵåĩº": 9330,
      "Ġmass": 9331,
      "Ġreb": 9332,
      "åĲĮæľŁ": 9333,
      "è·¯ä¸Ĭ": 9334,
      "Ġoutside": 9335,
      "çĶ³è¯·äºº": 9336,
      "ufact": 9337,
      "EC": 9338,
      "é«ĺåİĭ": 9339,
      "èģĶåĲĪåĽ½": 9340,
      "çĹĽèĭ¦": 9341,
      "æĢ¨": 9342,
      "æŁ¥è¯¢": 9343,
      "çĪ±å¿ĥ": 9344,
      "ä¸Ńå¿ĥçļĦ": 9345,
      "å¾®åįļ": 9346,
      "åĩºçİ°åľ¨": 9347,
      "Ġrespect": 9348,
      "like": 9349,
      "ä»ĸæĺ¯": 9350,
      "Ġstaff": 9351,
      "ĠNavy": 9352,
      "ria": 9353,
      "éłĤ": 9354,
      "çĳª": 9355,
      "éĥĳå·ŀ": 9356,
      "Ġsouthern": 9357,
      "åĴĮåıĳå±ķ": 9358,
      "çĽ¸éĹľ": 9359,
      "æŃĮæīĭ": 9360,
      "è®¸åı¯è¯ģ": 9361,
      "éģº": 9362,
      "æĭīæĸ¯": 9363,
      "èĹ¥": 9364,
      "å¯Ĩå°ģ": 9365,
      "ĠSuper": 9366,
      "Ġcaused": 9367,
      "vironment": 9368,
      "çļĦçĽ®æłĩ": 9369,
      "Ġbass": 9370,
      "ä¾¨": 9371,
      "æ¸´": 9372,
      "ĠGo": 9373,
      "Ġ1984": 9374,
      "Ġallowed": 9375,
      "çļĦå¸Ĥåľº": 9376,
      "éĩįå¤į": 9377,
      "å¾Īé«ĺ": 9378,
      "åħĭæľį": 9379,
      "å·®è·Ŀ": 9380,
      "Ġrelig": 9381,
      "è²łè²¬": 9382,
      "åįģå¤§": 9383,
      "è¨ĵ": 9384,
      "ĠInstitute": 9385,
      "åĪ¤åĨ³": 9386,
      "éģŃéģĩ": 9387,
      "Â°": 9388,
      "asy": 9389,
      "èĥ½åľ¨": 9390,
      "éģ·": 9391,
      "ä¹ĭå¤Ħ": 9392,
      "Ġvia": 9393,
      "èĦĬ": 9394,
      "æĢ»é¢Ŀ": 9395,
      "ä¾Ŀèµĸ": 9396,
      "Ġdistrib": 9397,
      "Ġé¥°": 9398,
      "ä½ĵæ£Ģ": 9399,
      "å½ĵäºĭ": 9400,
      "ression": 9401,
      "81": 9402,
      "ä¹Łè¢«": 9403,
      "çī¹åĪ¥": 9404,
      "å¾Īå°ĳ": 9405,
      "å¤ªç©º": 9406,
      "èĥ½åĬĽåĴĮ": 9407,
      "æĲľç´¢": 9408,
      "Or": 9409,
      "Ã¤": 9410,
      "enth": 9411,
      "ĠSwed": 9412,
      "iro": 9413,
      "å¶": 9414,
      "çİ°éĩĳ": 9415,
      "çĶµç½ĳ": 9416,
      "æīĭç»Ń": 9417,
      "ĠKore": 9418,
      "éĤ£æł·": 9419,
      "åįłæ¯Ķ": 9420,
      "çļĦä¸ĸçķĮ": 9421,
      "Ġwinning": 9422,
      "ä¸įåĪ©": 9423,
      "æĬĽ": 9424,
      "æĺ¾å¾Ĺ": 9425,
      "åħħè¶³": 9426,
      "éĽĨåĽ¢æľīéĻĲåħ¬åı¸": 9427,
      "eel": 9428,
      "å·¥ä¼ļ": 9429,
      "åĨħå¤ĸ": 9430,
      "ĠFore": 9431,
      "å°Ķçľģ": 9432,
      "èµ°è¿Ľ": 9433,
      "éĨī": 9434,
      "Ġoccup": 9435,
      "çļĦæľºä¼ļ": 9436,
      "ç»ĻæĪĳ": 9437,
      "æµİåįĹ": 9438,
      "çĽĳå¯Ł": 9439,
      "ç¨İåĬ¡": 9440,
      "é¡¾éĹ®": 9441,
      "ropical": 9442,
      "ometimes": 9443,
      "Am": 9444,
      "çļĦåŁİå¸Ĥ": 9445,
      "ä»¥å¾Ģ": 9446,
      "éľŀ": 9447,
      "è¯¥åħ¬åı¸": 9448,
      "èĻļæĭŁ": 9449,
      "Ġtracks": 9450,
      "ĠMinister": 9451,
      "ficult": 9452,
      "éĩĭ": 9453,
      "çĪ¬": 9454,
      "æİ¥æĶ¶": 9455,
      "æıĲä¾ĽçļĦ": 9456,
      "æ¯ķç«Ł": 9457,
      "ĠAtlant": 9458,
      "éĵ¶å±ĳçĹħ": 9459,
      "RA": 9460,
      "è¿Ļå°±æĺ¯": 9461,
      "éļª": 9462,
      "æĿĥå¨ģ": 9463,
      "ç¢Ĺ": 9464,
[...]
